{
  "version": "1.0",
  "truncation": null,
  "padding": null,
  "added_tokens": [
    {
      "id": 0,
      "content": "[CHESS::]",
      "single_word": false,
      "lstrip": false,
      "rstrip": false,
      "normalized": false,
      "special": true
    },
    {
      "id": 1,
      "content": "[::GAME]",
      "single_word": false,
      "lstrip": false,
      "rstrip": false,
      "normalized": false,
      "special": true
    },
    {
      "id": 2,
      "content": "[UNK]",
      "single_word": false,
      "lstrip": false,
      "rstrip": false,
      "normalized": false,
      "special": true
    },
    {
      "id": 3,
      "content": "<pad>",
      "single_word": false,
      "lstrip": false,
      "rstrip": false,
      "normalized": false,
      "special": true
    }
  ],
  "normalizer": {
    "type": "BertNormalizer",
    "clean_text": true,
    "handle_chinese_chars": true,
    "strip_accents": null,
    "lowercase": false
  },
  "pre_tokenizer": {
    "type": "WhitespaceSplit"
  },
  "post_processor": null,
  "decoder": null,
  "model": {
    "type": "WordPiece",
    "unk_token": "[UNK]",
    "continuing_subword_prefix": "##",
    "max_input_chars_per_word": 100,
    "vocab": {
      "[CHESS::]": 0,
      "[::GAME]": 1,
      "[UNK]": 2,
      "<pad>": 3,
      "#": 4,
      "+": 5,
      "-": 6,
      "1": 7,
      "2": 8,
      "3": 9,
      "4": 10,
      "5": 11,
      "6": 12,
      "7": 13,
      "8": 14,
      ":": 15,
      ";": 16,
      "=": 17,
      "A": 18,
      "B": 19,
      "C": 20,
      "E": 21,
      "G": 22,
      "H": 23,
      "K": 24,
      "M": 25,
      "N": 26,
      "O": 27,
      "Q": 28,
      "R": 29,
      "S": 30,
      "W": 31,
      "[": 32,
      "]": 33,
      "a": 34,
      "b": 35,
      "c": 36,
      "d": 37,
      "e": 38,
      "f": 39,
      "g": 40,
      "h": 41,
      "i": 42,
      "m": 43,
      "n": 44,
      "r": 45,
      "s": 46,
      "t": 47,
      "w": 48,
      "x": 49,
      "y": 50,
      "##-": 51,
      "##B": 52,
      "##b": 53,
      "##8": 54,
      "##+": 55,
      "##R": 56,
      "##g": 57,
      "##1": 58,
      "##2": 59,
      "##c": 60,
      "##f": 61,
      "##6": 62,
      "##x": 63,
      "##a": 64,
      "##h": 65,
      "##e": 66,
      "##7": 67,
      "##Q": 68,
      "###": 69,
      "##N": 70,
      "##4": 71,
      "##5": 72,
      "##d": 73,
      "##3": 74,
      "##K": 75,
      "##=": 76,
      "##C": 77,
      "##H": 78,
      "##E": 79,
      "##S": 80,
      "##:": 81,
      "##]": 82,
      "##G": 83,
      "##A": 84,
      "##M": 85,
      "##O": 86,
      "##y": 87,
      "##i": 88,
      "##n": 89,
      "##s": 90,
      "##t": 91,
      "##r": 92,
      "##w": 93,
      "W-": 94,
      "B-": 95,
      "W-N": 96,
      "B-N": 97,
      "W-B": 98,
      "B-B": 99,
      "W-R": 100,
      "B-R": 101,
      "W-Q": 102,
      "B-Q": 103,
      "##xd": 104,
      "B-K": 105,
      "W-K": 106,
      "##xe": 107,
      "##xf": 108,
      "##xc": 109,
      "##::": 110,
      "W-e": 111,
      "##f3": 112,
      "##f6": 113,
      "B-e": 114,
      "W-d": 115,
      "##-O": 116,
      "B-d": 117,
      "##c6": 118,
      "##c3": 119,
      "##O-O": 120,
      "##g5": 121,
      "##g4": 122,
      "##b5": 123,
      "##c4": 124,
      "##c5": 125,
      "##b4": 126,
      "##xd4": 127,
      "##xd5": 128,
      "[C": 129,
      "[::": 130,
      "by": 131,
      "wi": 132,
      "##HE": 133,
      "##E]": 134,
      "##SS": 135,
      "##GA": 136,
      "##ME]": 137,
      "##ns": 138,
      "##::]": 139,
      "[CHE": 140,
      "[::GA": 141,
      "wins": 142,
      "##SS::]": 143,
      "##e7": 144,
      "W-Nf3": 145,
      "##f4": 146,
      "##g6": 147,
      "##d7": 148,
      "##xe5": 149,
      "##e2": 150,
      "##f5": 151,
      "##d2": 152,
      "B-Nf6": 153,
      "##g3": 154,
      "W-e4": 155,
      "##xa": 156,
      "B-a": 157,
      "##h6": 158,
      "##b3": 159,
      "##b6": 160,
      "W-d4": 161,
      "W-h": 162,
      "W-a": 163,
      "B-Nc6": 164,
      "W-Nc3": 165,
      "W-O-O": 166,
      "##xe4": 167,
      "##d3": 168,
      "##h5": 169,
      "##e3": 170,
      "B-O-O": 171,
      "##g7": 172,
      "B-e5": 173,
      "B-d5": 174,
      "re": 175,
      "##gn": 176,
      "##ign": 177,
      "##sign": 178,
      "resign": 179,
      "##e1": 180,
      "##d6": 181,
      "##e5": 182,
      "##e6": 183,
      "##e8": 184,
      "##e4": 185,
      "##d5": 186,
      "##d4": 187,
      "##h4": 188,
      "##d8": 189,
      "##xf6": 190,
      "##d1": 191,
      "##b7": 192,
      "##xc6": 193,
      "##g2": 194,
      "##xc3": 195,
      "##xf3": 196,
      "##b2": 197,
      "B-Ra": 198,
      "B-c5": 199,
      "W-Ra": 200,
      "B-e6": 201,
      "##c7": 202,
      "##c2": 203,
      "##xh": 204,
      "B-d6": 205,
      "##c8": 206,
      "W-c4": 207,
      "##f8": 208,
      "##xc4": 209,
      "##c1": 210,
      "##f7": 211,
      "##f1": 212,
      "##b1": 213,
      "##f2": 214,
      "##b8": 215,
      "B-c": 216,
      "ma": 217,
      "##te": 218,
      "mate": 219,
      "##xc5": 220,
      "W-Bc4": 221,
      "B-a6": 222,
      "W-h3": 223,
      "B-h6": 224,
      "B-g6": 225,
      "W-c3": 226,
      "##g8": 227,
      "##xe6": 228,
      "B-Be7": 229,
      "W-Kh": 230,
      "B-c6": 231,
      "##xf5": 232,
      "##xf4": 233,
      "##xg5": 234,
      "##g1": 235,
      "##xd6": 236,
      "W-f4": 237,
      "B-b5": 238,
      "W-c": 239,
      "W-a3": 240,
      "W-Bd3": 241,
      "##7+": 242,
      "W-Re1": 243,
      "##xb5": 244,
      "W-Bg5": 245,
      "W-d3": 246,
      "##xg4": 247,
      "W-Be3": 248,
      "##a5": 249,
      "B-Kh": 250,
      "W-Bb5": 251,
      "W-g3": 252,
      "##a4": 253,
      "B-f5": 254,
      "W-b4": 255,
      "##xd3": 256,
      "##xb4": 257,
      "W-e3": 258,
      "W-e5": 259,
      "##xe3": 260,
      "B-Bg4": 261,
      "W-Be2": 262,
      "##2+": 263,
      "B-Re8": 264,
      "B-f6": 265,
      "##h3": 266,
      "W-g4": 267,
      "B-b6": 268,
      "B-Bd7": 269,
      "B-f": 270,
      "B-a5": 271,
      "W-a4": 272,
      "B-b": 273,
      "B-Bc5": 274,
      "B-Bd6": 275,
      "W-Bf4": 276,
      "W-exd5": 277,
      "W-f": 278,
      "W-f3": 279,
      "W-h4": 280,
      "B-Bb4": 281,
      "W-b3": 282,
      "B-g5": 283,
      "W-b": 284,
      "W-Qx": 285,
      "B-Be6": 286,
      "B-h5": 287,
      "##xd8": 288,
      "B-Bg7": 289,
      "W-Bd2": 290,
      "W-Nxd4": 291,
      "B-Qx": 292,
      "##a6": 293,
      "W-Qe2": 294,
      "B-Ke7": 295,
      "##xe7": 296,
      "##xd1": 297,
      "##xf7": 298,
      "W-Rx": 299,
      "W-Bx": 300,
      "##a3": 301,
      "B-Qe7": 302,
      "B-Bb7": 303,
      "W-Qf3": 304,
      "B-cxd4": 305,
      "B-Kg7": 306,
      "##xd7": 307,
      "B-Rx": 308,
      "W-Ne5": 309,
      "B-g": 310,
      "W-g": 311,
      "B-Kf7": 312,
      "B-Nd7": 313,
      "B-Bf5": 314,
      "W-Kf2": 315,
      "B-exd4": 316,
      "W-Rf": 317,
      "##=Q": 318,
      "W-Ke2": 319,
      "W-Nxe5": 320,
      "W-Kg2": 321,
      "W-Nd2": 322,
      "W-Rh": 323,
      "B-Rh": 324,
      "W-Qd2": 325,
      "W-d5": 326,
      "B-Kf8": 327,
      "##xd2": 328,
      "W-Rd1": 329,
      "W-Ng5": 330,
      "W-Nd5": 331,
      "B-Rf": 332,
      "B-Rd8": 333,
      "W-Kf1": 334,
      "B-Ne4": 335,
      "B-h": 336,
      "B-Rc8": 337,
      "B-Kd7": 338,
      "B-Nd4": 339,
      "##8+": 340,
      "W-dxe5": 341,
      "W-Kh1": 342,
      "B-Qb6": 343,
      "B-Ne7": 344,
      "B-Qf6": 345,
      "B-Qc7": 346,
      "B-Nxd5": 347,
      "B-Nxe4": 348,
      "B-Bx": 349,
      "##1+": 350,
      "B-Qd7": 351,
      "##xe2": 352,
      "B-Kh8": 353,
      "B-Bxf3": 354,
      "W-Rc1": 355,
      "W-Bxf6": 356,
      "##xf2": 357,
      "B-Nxe5": 358,
      "W-Kd2": 359,
      "B-Rb8": 360,
      "B-Rxa": 361,
      "W-Rb1": 362,
      "W-Rxa": 363,
      "##xc7": 364,
      "##xh3": 365,
      "W-Ne4": 366,
      "W-Bxc6": 367,
      "##xg6": 368,
      "W-Qd3": 369,
      "##xc2": 370,
      "W-Kh2": 371,
      "B-Ne5": 372,
      "W-Qc2": 373,
      "B-Bxc3": 374,
      "B-Kf6": 375,
      "B-Ng4": 376,
      "W-Ne2": 377,
      "B-Ke6": 378,
      "B-Nb": 379,
      "W-Bb2": 380,
      "W-Kf3": 381,
      "W-cxd5": 382,
      "W-Bg2": 383,
      "B-Kg8": 384,
      "W-Ke3": 385,
      "W-Bb3": 386,
      "W-Qb3": 387,
      "W-Qh5": 388,
      "B-Qa5": 389,
      "B-Kg6": 390,
      "B-dxe4": 391,
      "B-exd5": 392,
      "W-Kg3": 393,
      "B-Kh7": 394,
      "W-O-O-O": 395,
      "B-Nd5": 396,
      "W-Nb": 397,
      "W-Kg1": 398,
      "B-e4": 399,
      "B-bxc6": 400,
      "W-Nb5": 401,
      "##xg3": 402,
      "B-Nxd4": 403,
      "W-Qxa": 404,
      "B-d4": 405,
      "W-Nxe4": 406,
      "W-bxc3": 407,
      "B-Rf8": 408,
      "W-Rf1": 409,
      "B-Qxa": 410,
      "B-b4": 411,
      "##xf8": 412,
      "B-Qd6": 413,
      "B-dxe5": 414,
      "W-Nd4": 415,
      "B-O-O-O": 416,
      "W-Qxd4": 417,
      "B-Kd6": 418,
      "B-Nbd7": 419,
      "B-Nb4": 420,
      "W-Kd3": 421,
      "##xb3": 422,
      "W-Nbd2": 423,
      "W-g5": 424,
      "W-Nxd5": 425,
      "W-c5": 426,
      "B-Qxd5": 427,
      "W-h5": 428,
      "B-cxd5": 429,
      "B-Rg8": 430,
      "W-cxd4": 431,
      "B-c4": 432,
      "B-Kd8": 433,
      "W-Qa4": 434,
      "B-Ke8": 435,
      "B-dxc4": 436,
      "##xf1": 437,
      "B-a4": 438,
      "##xe8": 439,
      "W-f5": 440,
      "W-Rad1": 441,
      "W-b5": 442,
      "W-a5": 443,
      "B-Kc7": 444,
      "##xe1": 445,
      "B-Qh4": 446,
      "##xh7": 447,
      "W-Qg3": 448,
      "W-Bxa": 449,
      "W-Rg1": 450,
      "W-Qe3": 451,
      "##xf7+": 452,
      "W-Qg4": 453,
      "B-Nc5": 454,
      "B-Bxa": 455,
      "B-g4": 456,
      "W-Kd1": 457,
      "B-Nf5": 458,
      "W-Bb5+": 459,
      "##xc8": 460,
      "W-Rfe1": 461,
      "##a2": 462,
      "W-Nxc6": 463,
      "B-h4": 464,
      "W-Kc2": 465,
      "B-f4": 466,
      "W-Nc4": 467,
      "W-Ke1": 468,
      "B-Bf6": 469,
      "W-dxc5": 470,
      "B-Qg5": 471,
      "W-Nx": 472,
      "B-Rad8": 473,
      "W-Bxd5": 474,
      "B-Kc6": 475,
      "B-Kf5": 476,
      "B-Ng": 477,
      "W-Bg3": 478,
      "B-Nh5": 479,
      "B-Qd8": 480,
      "W-Nf5": 481,
      "##e6+": 482,
      "##xc1": 483,
      "##xh2": 484,
      "##g6+": 485,
      "B-Kx": 486,
      "B-Bb4+": 487,
      "W-Qxf3": 488,
      "W-gxf3": 489,
      "##a7": 490,
      "##xf6+": 491,
      "B-Nf4": 492,
      "B-Bb6": 493,
      "B-Rfe8": 494,
      "B-Na5": 495,
      "B-Bxe5": 496,
      "W-Kf4": 497,
      "##xd7+": 498,
      "##e5+": 499,
      "W-Nxa": 500,
      "B-Ba6": 501,
      "##f6+": 502,
      "W-Bxc4": 503,
      "B-Nx": 504,
      "W-Nh4": 505,
      "B-Ng6": 506,
      "B-gxf6": 507,
      "B-Nb6": 508,
      "B-Ke5": 509,
      "W-Kb1": 510,
      "W-Kc3": 511,
      "B-Bxf6": 512,
      "B-fxe6": 513,
      "##g7+": 514,
      "W-Bf3": 515,
      "B-Bxd4": 516,
      "W-Nf4": 517,
      "B-Qxf6": 518,
      "B-Rd2": 519,
      "B-Bg6": 520,
      "##g3+": 521,
      "W-Qxd5": 522,
      "W-Rd7": 523,
      "##f7+": 524,
      "W-Bh4": 525,
      "B-Bc6": 526,
      "W-Qd1": 527,
      "##e3+": 528,
      "##xf2+": 529,
      "W-Na3": 530,
      "W-Ke4": 531,
      "W-Ng3": 532,
      "W-Bxe5": 533,
      "W-Ba4": 534,
      "B-Qe6": 535,
      "##h6+": 536,
      "##xh8": 537,
      "##f3+": 538,
      "##e7+": 539,
      "W-Bxe4": 540,
      "##xf3+": 541,
      "W-Rac1": 542,
      "B-Kd5": 543,
      "B-Qg6": 544,
      "##d4+": 545,
      "W-Nd6": 546,
      "B-Nh6": 547,
      "##g2+": 548,
      "W-Nc5": 549,
      "##e2+": 550,
      "B-Na6": 551,
      "B-Kg5": 552,
      "W-Kh3": 553,
      "B-Nc4": 554,
      "W-Kg4": 555,
      "W-Qc3": 556,
      "B-Qxd4": 557,
      "B-Rac8": 558,
      "W-fxe5": 559,
      "B-Bxe4": 560,
      "B-Kb8": 561,
      "dr": 562,
      "##aw": 563,
      "draw": 564,
      "B-Nxa": 565,
      "B-Kh6": 566,
      "W-Qd5": 567,
      "B-Qxb2": 568,
      "B-Qc6": 569,
      "W-Rd2": 570,
      "W-Nb3": 571,
      "W-Bxe6": 572,
      "W-Qf4": 573,
      "##e4+": 574,
      "B-Nxc3": 575,
      "B-Qxe5": 576,
      "B-Bh5": 577,
      "##h2": 578,
      "##xd8+": 579,
      "W-Kx": 580,
      "B-Ra8": 581,
      "B-Kb7": 582,
      "B-Rd7": 583,
      "B-exf4": 584,
      "W-Bd5": 585,
      "B-gx": 586,
      "##=Q+": 587,
      "B-Qc5": 588,
      "W-Na4": 589,
      "W-Re3": 590,
      "W-Qxe5": 591,
      "B-Qd5": 592,
      "W-Qc4": 593,
      "W-Bc2": 594,
      "B-Qf5": 595,
      "##f2+": 596,
      "W-Kd4": 597,
      "W-Ba3": 598,
      "W-Ng": 599,
      "W-Qxb7": 600,
      "B-Bxc5": 601,
      "W-Rd": 602,
      "B-fxe5": 603,
      "W-Re2": 604,
      "W-Rc7": 605,
      "B-Qxe4": 606,
      "##e8+": 607,
      "B-Kb6": 608,
      "B-Rf7": 609,
      "##xd1+": 610,
      "W-Ra1": 611,
      "W-Kc1": 612,
      "##e1+": 613,
      "##xb6": 614,
      "B-Kc8": 615,
      "W-Qxe4": 616,
      "B-Bxd5": 617,
      "W-Bc3": 618,
      "W-exf5": 619,
      "##d3+": 620,
      "W-Bxd4": 621,
      "B-Rc2": 622,
      "B-Qb4": 623,
      "B-Kxf7": 624,
      "W-Rfd1": 625,
      "##h7": 626,
      "B-Kc5": 627,
      "B-Re7": 628,
      "W-bxa": 629,
      "##xd2+": 630,
      "W-Bxe7": 631,
      "W-hxg4": 632,
      "W-Qh5+": 633,
      "##a1": 634,
      "W-Nxe6": 635,
      "W-Bh6": 636,
      "W-exf6": 637,
      "W-fxe3": 638,
      "W-Bxc6+": 639,
      "W-d6": 640,
      "B-hxg5": 641,
      "B-Bxc3+": 642,
      "W-Qg5": 643,
      "W-Qh4": 644,
      "B-bxa": 645,
      "##a8": 646,
      "B-Rfd8": 647,
      "W-Ne3": 648,
      "W-exd4": 649,
      "B-Qg4": 650,
      "W-Kb2": 651,
      "W-e6": 652,
      "B-fxe4": 653,
      "##xh1": 654,
      "W-Nh3": 655,
      "W-Nxf6+": 656,
      "W-Bxf4": 657,
      "B-Ke4": 658,
      "W-a6": 659,
      "W-Rf2": 660,
      "W-Qf5": 661,
      "B-axb5": 662,
      "B-Nge7": 663,
      "W-Qb5": 664,
      "W-Qxd3": 665,
      "W-Rd8": 666,
      "W-Bd4": 667,
      "W-Rf3": 668,
      "B-Rd": 669,
      "B-Qf4": 670,
      "W-dxe4": 671,
      "B-Kf4": 672,
      "B-Be5": 673,
      "B-d3": 674,
      "B-Ne6": 675,
      "B-Nxf3+": 676,
      "W-Kg5": 677,
      "B-a3": 678,
      "##d1+": 679,
      "W-Rb7": 680,
      "W-Kb3": 681,
      "B-Bd4": 682,
      "B-Rxb2": 683,
      "W-Nxf7": 684,
      "W-axb4": 685,
      "B-Qa5+": 686,
      "W-Be4": 687,
      "W-Rae1": 688,
      "W-Bxf3": 689,
      "W-Bxd7+": 690,
      "W-Bxh6": 691,
      "B-Rxd8": 692,
      "B-Bg5": 693,
      "B-Bd5": 694,
      "W-Rxe5": 695,
      "W-Kc4": 696,
      "W-Bxd6": 697,
      "W-Rab1": 698,
      "B-Rae8": 699,
      "B-Bxc6": 700,
      "B-Bxd3": 701,
      "W-Kf5": 702,
      "B-Qxg5": 703,
      "##xe7+": 704,
      "W-Qd4": 705,
      "W-Qa4+": 706,
      "B-Kd4": 707,
      "B-Nxe3": 708,
      "W-Rxd1": 709,
      "B-Rb2": 710,
      "B-Re6": 711,
      "W-dxc6": 712,
      "B-Nxd3": 713,
      "B-h3": 714,
      "W-Be5": 715,
      "B-Bxf5": 716,
      "W-Qxc6": 717,
      "B-Qxd6": 718,
      "W-Bxg5": 719,
      "W-Qe4": 720,
      "W-Nxd6": 721,
      "B-Bf8": 722,
      "W-Qh": 723,
      "B-Qxc3": 724,
      "W-Rd6": 725,
      "B-e3": 726,
      "W-axb5": 727,
      "W-Re": 728,
      "W-Ke5": 729,
      "##c6+": 730,
      "##c3+": 731,
      "B-Qh5": 732,
      "B-Kg4": 733,
      "##xe1+": 734,
      "W-Rd3": 735,
      "W-Bxf7+": 736,
      "W-Rxb7": 737,
      "##xe8+": 738,
      "B-Rab8": 739,
      "B-Bxe3": 740,
      "W-fxe4": 741,
      "B-Kc4": 742,
      "B-Qe5": 743,
      "B-dxc3": 744,
      "W-Qe1": 745,
      "B-Qc8": 746,
      "W-h6": 747,
      "B-Be4": 748,
      "B-Bh6": 749,
      "B-Qe8": 750,
      "W-exd6": 751,
      "B-bxc4": 752,
      "##g8+": 753,
      "B-Qxe7": 754,
      "W-Kh4": 755,
      "##b1+": 756,
      "##c1+": 757,
      "B-Ba5": 758,
      "B-Bb5": 759,
      "B-Rd6": 760,
      "B-Nd6": 761,
      "W-Nd3": 762,
      "W-Nc7": 763,
      "##b8+": 764,
      "W-Bxg7": 765,
      "W-Bxc5": 766,
      "B-Nxc4": 767,
      "##8=Q": 768,
      "##h3+": 769,
      "##xe2+": 770,
      "B-Re": 771,
      "B-Rf6": 772,
      "W-gx": 773,
      "W-Rc2": 774,
      "W-Qxg4": 775,
      "B-Nf": 776,
      "B-Bxb2": 777,
      "B-Kh5": 778,
      "W-Rxa7": 779,
      "W-Rxe6": 780,
      "B-Rc7": 781,
      "##c8+": 782,
      "W-Nxg5": 783,
      "B-Rxa2": 784,
      "B-Qh": 785,
      "B-Bxg4": 786,
      "W-Rg3": 787,
      "W-Nxb5": 788,
      "W-Bxc3": 789,
      "W-Qxd6": 790,
      "W-b6": 791,
      "B-axb4": 792,
      "B-b3": 793,
      "W-Qxe6": 794,
      "B-Re2": 795,
      "W-Re7": 796,
      "B-Rh8": 797,
      "B-Rxe4": 798,
      "B-Bxh3": 799,
      "W-Kd5": 800,
      "B-Kxg7": 801,
      "B-Qxd7": 802,
      "B-hxg4": 803,
      "B-cxd6": 804,
      "B-Nxf6": 805,
      "B-Qd4": 806,
      "W-Bg4": 807,
      "W-Bd6": 808,
      "W-Bxb5": 809,
      "W-Rh1": 810,
      "##1=Q": 811,
      "B-Bc8": 812,
      "W-Rd5": 813,
      "W-Kc5": 814,
      "W-c6": 815,
      "B-Bxc4": 816,
      "W-Qxg7": 817,
      "W-Bxf5": 818,
      "B-Ra3": 819,
      "##g1+": 820,
      "B-Qh4+": 821,
      "W-Rxd5": 822,
      "W-bxc5": 823,
      "B-Bxe2": 824,
      "##xh7+": 825,
      "W-Qb4": 826,
      "B-Kb5": 827,
      "W-Ra6": 828,
      "W-Bc5": 829,
      "W-hxg5": 830,
      "W-Qxa7": 831,
      "B-c3": 832,
      "W-Ng4": 833,
      "B-Bxd6": 834,
      "B-Rxe5": 835,
      "W-Ra7": 836,
      "B-hxg6": 837,
      "##xc2+": 838,
      "##f8+": 839,
      "B-Bxf4": 840,
      "B-Qb5": 841,
      "W-Qc1": 842,
      "B-Nxg4": 843,
      "B-Kd3": 844,
      "W-axb3": 845,
      "B-Nd3": 846,
      "W-Rc5": 847,
      "##h5+": 848,
      "B-Qxg2": 849,
      "B-bxc5": 850,
      "W-Nc6": 851,
      "B-Kb4": 852,
      "##f1+": 853,
      "W-Rxe4": 854,
      "B-Rxe8": 855,
      "B-Bxd2+": 856,
      "W-Rb": 857,
      "B-Rxc2": 858,
      "W-Qf2": 859,
      "B-gxf5": 860,
      "W-Ne6": 861,
      "W-Qxd8+": 862,
      "W-Kxf2": 863,
      "B-Kxd8": 864,
      "B-Nc2": 865,
      "B-Rc4": 866,
      "W-Rxd6": 867,
      "B-Rxd4": 868,
      "B-Nxf4": 869,
      "W-Rxd4": 870,
      "B-Bf4": 871,
      "W-Re4": 872,
      "B-Rd5": 873,
      "W-Kb4": 874,
      "W-bxc4": 875,
      "W-Rf4": 876,
      "W-g6": 877,
      "B-Bc4": 878,
      "W-Nxd7": 879,
      "W-Bb4": 880,
      "W-Rc": 881,
      "W-Nxc4": 882,
      "W-Qxc4": 883,
      "##b6+": 884,
      "B-Rc6": 885,
      "B-Bxb4": 886,
      "B-Bh3": 887,
      "W-hxg3": 888,
      "W-a7": 889,
      "B-Qf7": 890,
      "##xc7+": 891,
      "W-f6": 892,
      "W-Qc7": 893,
      "W-dxe6": 894,
      "B-Rf5": 895,
      "B-exf5": 896,
      "B-Bc7": 897,
      "##xf8+": 898,
      "W-Bc1": 899,
      "W-Nf6+": 900,
      "B-Rb3": 901,
      "W-Nge2": 902,
      "W-Qxf6": 903,
      "B-Nc": 904,
      "B-Kc3": 905,
      "B-a2": 906,
      "B-Ra6": 907,
      "W-Rxe1": 908,
      "W-Qxd2": 909,
      "B-Bxg5": 910,
      "B-Kf3": 911,
      "B-Ra7": 912,
      "B-f3": 913,
      "W-Re5": 914,
      "W-Rxf7": 915,
      "B-Qd2": 916,
      "W-Rxc7": 917,
      "B-Rc": 918,
      "W-Qd7": 919,
      "W-Qe6+": 920,
      "W-Bxb7": 921,
      "W-Bf1": 922,
      "B-Rxc3": 923,
      "W-Nxg6": 924,
      "B-Ng5": 925,
      "##h4+": 926,
      "B-Ra2": 927,
      "W-Ba2": 928,
      "B-Qxa2": 929,
      "W-Bh3": 930,
      "W-Nxc5": 931,
      "W-Nxf5": 932,
      "B-Bxb5": 933,
      "W-Rb3": 934,
      "W-Qb7": 935,
      "B-Qxf3": 936,
      "B-Qc4": 937,
      "B-Qxc4": 938,
      "W-Nd": 939,
      "B-Nxb4": 940,
      "B-Rg6": 941,
      "B-Rxe1+": 942,
      "B-Qxf4": 943,
      "B-Qb7": 944,
      "W-Qxc5": 945,
      "B-Kxa": 946,
      "W-Nd6+": 947,
      "B-Nxf2": 948,
      "B-Rd4": 949,
      "W-Qd6": 950,
      "W-Rc3": 951,
      "W-Qxc3": 952,
      "B-Nxc5": 953,
      "W-Kf6": 954,
      "W-Rxc6": 955,
      "B-Rxd5": 956,
      "W-Rxe8+": 957,
      "W-Qh3": 958,
      "W-gxf4": 959,
      "B-Qxd3": 960,
      "W-Rh3": 961,
      "B-Qxc5": 962,
      "W-Qxf5": 963,
      "B-fxg6": 964,
      "B-Qxc6": 965,
      "B-Ra4": 966,
      "W-Nxc3": 967,
      "B-Bd3": 968,
      "W-Qc5": 969,
      "W-Ra5": 970,
      "B-Rb4": 971,
      "B-Nxd7": 972,
      "B-Bxe6": 973,
      "W-Rb5": 974,
      "B-cxb5": 975,
      "W-gxf5": 976,
      "B-Qxc2": 977,
      "W-Bxa6": 978,
      "B-Rb": 979,
      "W-Re1+": 980,
      "B-Qxd1+": 981,
      "B-Rf4": 982,
      "W-Qxf7": 983,
      "B-Ra5": 984,
      "W-Qxe2": 985,
      "W-Kg6": 986,
      "B-Ne3": 987,
      "B-Nf3+": 988,
      "B-Rd1+": 989,
      "B-g3": 990,
      "B-Rxd3": 991,
      "W-cxb5": 992,
      "W-Rxa6": 993,
      "W-Kh5": 994,
      "W-cxd3": 995,
      "W-Kb5": 996,
      "B-Re5": 997,
      "W-Rf5": 998,
      "B-Qc2": 999,
      "W-Ra2": 1000,
      "B-cxb4": 1001,
      "B-Bxa3": 1002,
      "W-Qxg5": 1003,
      "B-Qxe3": 1004,
      "B-exf3": 1005,
      "##xh2+": 1006,
      "B-Rxe3": 1007,
      "W-Rg4": 1008,
      "B-dxc5": 1009,
      "W-Ra3": 1010,
      "B-Rxf2": 1011,
      "W-Kd6": 1012,
      "W-cxb4": 1013,
      "B-Qe3+": 1014,
      "B-Kxd7": 1015,
      "W-fxg3": 1016,
      "B-Bxg2": 1017,
      "B-Ra1": 1018,
      "B-Nxg3": 1019,
      "W-Ke6": 1020,
      "W-Kxd1": 1021,
      "B-Bxf2+": 1022,
      "B-Qd4+": 1023,
      "B-gxh6": 1024,
      "B-Ke3": 1025,
      "W-Rxd8+": 1026,
      "B-Rxd1+": 1027,
      "B-Nc7": 1028,
      "B-Re1+": 1029,
      "W-Ra8": 1030,
      "W-Qxe5+": 1031,
      "B-Nxc6": 1032,
      "W-Re8+": 1033,
      "B-Rb7": 1034,
      "B-dxc6": 1035,
      "W-Rd8+": 1036,
      "W-Qe5": 1037,
      "W-Nxf3": 1038,
      "W-Bf2": 1039,
      "B-Nxd2": 1040,
      "B-Rc5": 1041,
      "##xf1+": 1042,
      "W-Rc6": 1043,
      "B-Rxc4": 1044,
      "B-Ne8": 1045,
      "W-Nc": 1046,
      "W-Qxh7": 1047,
      "B-Qb2": 1048,
      "B-Nxb3": 1049,
      "W-Qe5+": 1050,
      "B-Kb3": 1051,
      "B-Ka6": 1052,
      "B-Nc3": 1053,
      "B-Qe4": 1054,
      "W-Rd4": 1055,
      "B-Qe4+": 1056,
      "B-Rfc8": 1057,
      "W-Bf5": 1058,
      "B-Kg3": 1059,
      "W-Qxb5": 1060,
      "B-Rd3": 1061,
      "W-Qd5+": 1062,
      "B-Rxf7": 1063,
      "B-Rb6": 1064,
      "W-Qxf4": 1065,
      "W-Qxc7": 1066,
      "W-dxc4": 1067,
      "B-Qe5+": 1068,
      "W-Rxc5": 1069,
      "B-Qxh3": 1070,
      "B-gxf4": 1071,
      "B-Ne2+": 1072,
      "W-Qxf7+": 1073,
      "B-Qxe4+": 1074,
      "W-Bxf8": 1075,
      "B-Rxc8": 1076,
      "B-axb6": 1077,
      "W-Rfc1": 1078,
      "B-Rd2+": 1079,
      "W-Nf": 1080,
      "W-Nh2": 1081,
      "B-Rxf4": 1082,
      "W-Qxe3": 1083,
      "W-Qb5+": 1084,
      "W-Rxd8": 1085,
      "W-Rg5": 1086,
      "W-Rd7+": 1087,
      "W-Qb2": 1088,
      "W-Rxf5": 1089,
      "W-Qd8": 1090,
      "B-Kh4": 1091,
      "W-Nxa8": 1092,
      "B-Rxa3": 1093,
      "W-Nc2": 1094,
      "W-Kxg2": 1095,
      "W-Qxe6+": 1096,
      "W-Rxf6": 1097,
      "B-Qh6": 1098,
      "W-Kc6": 1099,
      "W-d7": 1100,
      "W-Rc4": 1101,
      "B-Ka7": 1102,
      "W-Qxh6": 1103,
      "B-Re4": 1104,
      "W-Qf5+": 1105,
      "W-Nd7": 1106,
      "W-Ne7+": 1107,
      "W-Rxh7": 1108,
      "B-Kxf8": 1109,
      "B-Rxa4": 1110,
      "W-Nf1": 1111,
      "B-Rg4": 1112,
      "W-Ka2": 1113,
      "B-Qf4+": 1114,
      "W-fxg5": 1115,
      "B-Bxf1": 1116,
      "B-fxg4": 1117,
      "B-Bxa1": 1118,
      "B-Bd8": 1119,
      "B-h2": 1120,
      "B-Rg7": 1121,
      "B-Rxf8": 1122,
      "B-Re8+": 1123,
      "W-Bxg6": 1124,
      "B-c2": 1125,
      "W-c7": 1126,
      "B-Qxg4": 1127,
      "W-Bxa8": 1128,
      "B-Rxd1": 1129,
      "B-fxg5": 1130,
      "W-Rg2": 1131,
      "B-Rxf6": 1132,
      "B-Qxh2": 1133,
      "W-Bxb4": 1134,
      "W-Rxe7": 1135,
      "B-Qb8": 1136,
      "B-Re2+": 1137,
      "W-Rhe1": 1138,
      "W-Rxa5": 1139,
      "B-Nfd7": 1140,
      "W-Bxc7": 1141,
      "B-Bc3": 1142,
      "W-Qa": 1143,
      "B-Qxf2+": 1144,
      "B-Ngf6": 1145,
      "B-Nd": 1146,
      "B-Rh6": 1147,
      "B-Rxf3": 1148,
      "W-Kxf1": 1149,
      "B-Qxe6": 1150,
      "W-h7": 1151,
      "W-Kxa": 1152,
      "W-Ka1": 1153,
      "W-Nxc7": 1154,
      "B-Kxe7": 1155,
      "W-hxg6": 1156,
      "B-Rxf5": 1157,
      "W-Qxa6": 1158,
      "W-Rb2": 1159,
      "B-Rc3": 1160,
      "B-Rg5": 1161,
      "B-b2": 1162,
      "W-fxg4": 1163,
      "W-Rxc1": 1164,
      "B-d2": 1165,
      "W-Ra4": 1166,
      "W-Nxd2": 1167,
      "W-Rxf4": 1168,
      "B-Nb8": 1169,
      "W-Qe8+": 1170,
      "W-Qf7+": 1171,
      "B-Qa3": 1172,
      "W-Rh8": 1173,
      "B-Rb5": 1174,
      "W-Kxe2": 1175,
      "B-Qg5+": 1176,
      "W-gxh3": 1177,
      "B-Nd3+": 1178,
      "W-Qa3": 1179,
      "W-b7": 1180,
      "W-Rb6": 1181,
      "W-Rxd3": 1182,
      "W-Rc8": 1183,
      "B-Qf8": 1184,
      "W-Ne1": 1185,
      "B-Qxf5": 1186,
      "W-Ka3": 1187,
      "B-Nxc2": 1188,
      "W-Rh5": 1189,
      "B-Qa6": 1190,
      "W-Rxe3": 1191,
      "B-Qe1+": 1192,
      "B-Rh7": 1193,
      "B-Ne": 1194,
      "B-Bxc2": 1195,
      "W-Qf6+": 1196,
      "B-Qxf2": 1197,
      "W-Rb4": 1198,
      "W-Rh4": 1199,
      "W-Qh6": 1200,
      "W-Qxh5": 1201,
      "W-Rb8": 1202,
      "W-Re7+": 1203,
      "B-Qxb4": 1204,
      "W-Qg4+": 1205,
      "W-Bxg4": 1206,
      "B-Rb1": 1207,
      "B-Qxb5": 1208,
      "W-Bc6": 1209,
      "W-Re8": 1210,
      "B-Qa": 1211,
      "W-bxa5": 1212,
      "B-Nh7": 1213,
      "B-Rhe8": 1214,
      "W-Ne5+": 1215,
      "B-Qb4+": 1216,
      "W-Ne": 1217,
      "W-Qf7": 1218,
      "B-Nxa1": 1219,
      "B-bxa4": 1220,
      "B-Be8": 1221,
      "B-Qc3": 1222,
      "B-Qg7": 1223,
      "B-Qa4": 1224,
      "W-Rxd7": 1225,
      "W-Qe2+": 1226,
      "B-Qxa3": 1227,
      "B-Bf7": 1228,
      "W-Rxf1": 1229,
      "##xc8+": 1230,
      "B-Bc5+": 1231,
      "B-Qxh4": 1232,
      "W-Bd1": 1233,
      "W-Rf7+": 1234,
      "B-Rxd6": 1235,
      "W-Qa6": 1236,
      "B-Rxb3": 1237,
      "W-Rh2": 1238,
      "B-Nd2": 1239,
      "B-Rxe6": 1240,
      "W-Kxd2": 1241,
      "W-Rxf8+": 1242,
      "W-Rc7+": 1243,
      "W-Qc8+": 1244,
      "B-Qc1+": 1245,
      "W-Nb6": 1246,
      "W-Bxd8": 1247,
      "B-Kc2": 1248,
      "W-Kb6": 1249,
      "W-Rxb5": 1250,
      "B-bxc3": 1251,
      "B-Qb6+": 1252,
      "B-Ka5": 1253,
      "B-Nb3": 1254,
      "B-Nf8": 1255,
      "W-Rxc4": 1256,
      "B-Rd1": 1257,
      "W-Qxb4": 1258,
      "W-Qxa8": 1259,
      "B-Ng8": 1260,
      "W-Nxf4": 1261,
      "W-Rxf2": 1262,
      "B-Bxd2": 1263,
      "W-Rxe8": 1264,
      "B-Bxe7": 1265,
      "B-Ka8": 1266,
      "B-Rh1": 1267,
      "B-Re3": 1268,
      "W-Rd1+": 1269,
      "B-Qc5+": 1270,
      "B-Rxh3": 1271,
      "W-Qf1": 1272,
      "B-Rc2+": 1273,
      "W-Qg7": 1274,
      "W-Ka4": 1275,
      "B-Rxh2": 1276,
      "W-Qg2": 1277,
      "W-Bxa7": 1278,
      "W-Rxd2": 1279,
      "W-Qe7+": 1280,
      "##xc1+": 1281,
      "B-Nxf5": 1282,
      "W-Qb1": 1283,
      "B-Qf2+": 1284,
      "B-Rxd2": 1285,
      "W-Ngf3": 1286,
      "W-exf4": 1287,
      "W-Nb4": 1288,
      "B-Nxg5": 1289,
      "W-Re6": 1290,
      "B-Qe2": 1291,
      "B-Bxg3": 1292,
      "B-Bxd7": 1293,
      "B-Rc1": 1294,
      "W-Qc4+": 1295,
      "W-Nc7+": 1296,
      "B-Qd1+": 1297,
      "W-Bxd3": 1298,
      "B-Qh3": 1299,
      "B-Kb2": 1300,
      "W-Qg5+": 1301,
      "W-Qd8+": 1302,
      "B-Rh4": 1303,
      "W-Bc4+": 1304,
      "W-Rh7": 1305,
      "B-Bxd1": 1306,
      "W-Rxf3": 1307,
      "W-Qh8+": 1308,
      "B-Rf2": 1309,
      "W-e7": 1310,
      "W-Rxh6": 1311,
      "B-gxh4": 1312,
      "B-Rc1+": 1313,
      "W-Qxc6+": 1314,
      "B-Re1": 1315,
      "W-Qxd7": 1316,
      "B-Qxb3": 1317,
      "B-Bh4": 1318,
      "B-Rxb4": 1319,
      "W-Qxd8": 1320,
      "W-Qg6+": 1321,
      "W-Nxb7": 1322,
      "W-Rb7+": 1323,
      "W-Rc8+": 1324,
      "B-Rxd7": 1325,
      "B-Rxf1+": 1326,
      "W-Qc6": 1327,
      "B-Qg2": 1328,
      "B-Qxe2+": 1329,
      "B-Rxg2": 1330,
      "W-Rxc8": 1331,
      "B-Rxc5": 1332,
      "W-Qxe7": 1333,
      "B-Qf3+": 1334,
      "B-Rxe2": 1335,
      "W-Qa5": 1336,
      "W-Rxg7": 1337,
      "W-Rxg5": 1338,
      "B-Rxe7": 1339,
      "W-Rxa1": 1340,
      "W-Bf6": 1341,
      "B-Rxa8": 1342,
      "W-Bc7": 1343,
      "B-Bf3": 1344,
      "B-Qxd1": 1345,
      "B-exd3": 1346,
      "W-Nd5+": 1347,
      "W-Nxd6+": 1348,
      "B-Qd3": 1349,
      "W-Ng5+": 1350,
      "B-Qxa4": 1351,
      "B-Nh4": 1352,
      "W-Kh6": 1353,
      "W-Nf2": 1354,
      "B-Nb5": 1355,
      "W-Bh2": 1356,
      "B-Rh5": 1357,
      "B-Ra1+": 1358,
      "W-Rxb6": 1359,
      "B-Nxd3+": 1360,
      "B-Qxe3+": 1361,
      "W-Rf6": 1362,
      "B-Rf2+": 1363,
      "B-Qxd2": 1364,
      "W-Qf3+": 1365,
      "W-gxh5": 1366,
      "B-Ba7": 1367,
      "B-Kxf6": 1368,
      "B-Bxb3": 1369,
      "B-Rb2+": 1370,
      "W-Nxg4": 1371,
      "W-Qxd7+": 1372,
      "W-Nh5": 1373,
      "W-Nxh8": 1374,
      "W-Qxh8": 1375,
      "B-Ne4+": 1376,
      "B-Ba4": 1377,
      "W-Rg7+": 1378,
      "W-a8=Q": 1379,
      "W-Bh5": 1380,
      "W-Qe7": 1381,
      "B-gxh5": 1382,
      "B-Qg4+": 1383,
      "B-Be3": 1384,
      "W-Qe4+": 1385,
      "B-Ra2+": 1386,
      "B-Nxb2": 1387,
      "B-Nxc2+": 1388,
      "W-R1": 1389,
      "B-Ka4": 1390,
      "W-Nb1": 1391,
      "W-Ne6+": 1392,
      "W-Be1": 1393,
      "W-Rh6": 1394,
      "W-Qxb6": 1395,
      "W-Ke7": 1396,
      "B-Nf7": 1397,
      "B-Nxe7": 1398,
      "W-Ba5": 1399,
      "B-Rxc1": 1400,
      "B-dxe3": 1401,
      "W-g7": 1402,
      "W-Nf7": 1403,
      "W-Nxe7+": 1404,
      "B-Qf2": 1405,
      "W-Na5": 1406,
      "W-Rg": 1407,
      "W-Rf7": 1408,
      "W-Rxe2": 1409,
      "W-Qxe7+": 1410,
      "W-Nxc7+": 1411,
      "W-Bb1": 1412,
      "W-Bxe3": 1413,
      "B-Qb3": 1414,
      "B-Kd2": 1415,
      "W-Rxa4": 1416,
      "W-Nf5+": 1417,
      "W-Rxh5": 1418,
      "W-Qxa5": 1419,
      "W-Nf7+": 1420,
      "B-R8": 1421,
      "B-Ke2": 1422,
      "W-fxg6": 1423,
      "W-bxc6": 1424,
      "B-Rxg4": 1425,
      "B-Rb1+": 1426,
      "B-Qc3+": 1427,
      "W-Kg7": 1428,
      "W-Bxb6": 1429,
      "W-Rb8+": 1430,
      "W-Rhg1": 1431,
      "B-Rxa5": 1432,
      "W-Ng6": 1433,
      "W-Be7": 1434,
      "W-Bxf7": 1435,
      "B-Qxc7": 1436,
      "B-e2": 1437,
      "B-Rxh4": 1438,
      "W-Rg7": 1439,
      "B-Kxh7": 1440,
      "B-Rh2": 1441,
      "##1=Q+": 1442,
      "B-Ng3": 1443,
      "B-Kf2": 1444,
      "B-cxb3": 1445,
      "##h8": 1446,
      "W-Bb6": 1447,
      "B-Rxc6": 1448,
      "W-Qc6+": 1449,
      "B-Qg3+": 1450,
      "W-Kc7": 1451,
      "B-Bxa2": 1452,
      "W-Qh6+": 1453,
      "B-a1=Q": 1454,
      "W-Qc7+": 1455,
      "W-Rg8+": 1456,
      "B-Kxe6": 1457,
      "B-Ka3": 1458,
      "B-Qxa1": 1459,
      "B-Nc2+": 1460,
      "W-Nxe7": 1461,
      "W-Be6": 1462,
      "B-Rxe1": 1463,
      "W-Ra7+": 1464,
      "B-Qxc3+": 1465,
      "B-Be2": 1466,
      "W-Rf8+": 1467,
      "W-Qf8+": 1468,
      "W-Kd7": 1469,
      "W-Nxf6": 1470,
      "W-Nd1": 1471,
      "B-Ne3+": 1472,
      "W-Kf7": 1473,
      "W-f7": 1474,
      "B-Rf3": 1475,
      "B-fxg3": 1476,
      "B-Qxg3": 1477,
      "B-Rde8": 1478,
      "B-Na4": 1479,
      "W-Bxd7": 1480,
      "B-Rh3": 1481,
      "B-Rhg8": 1482,
      "B-Rd8+": 1483,
      "W-Qxd5+": 1484,
      "W-Nxc8": 1485,
      "B-Rg": 1486,
      "W-Nxb6": 1487,
      "B-Qh1+": 1488,
      "W-Bxd2": 1489,
      "B-Rg2+": 1490,
      "W-Rxb2": 1491,
      "B-Nd8": 1492,
      "W-Qd7+": 1493,
      "B-b1": 1494,
      "B-Rxb8": 1495,
      "W-Qa8+": 1496,
      "B-g2": 1497,
      "B-Kg2": 1498,
      "W-Nxf8": 1499,
      "W-Rxc3": 1500,
      "W-Rf8": 1501,
      "W-Qb8+": 1502,
      "B-Qg1+": 1503,
      "B-Rhf8": 1504,
      "B-hxg3": 1505,
      "B-Qd2+": 1506,
      "B-Qf1+": 1507,
      "B-axb3": 1508,
      "W-Qf6": 1509,
      "B-Qb1+": 1510,
      "B-Kh3": 1511,
      "W-Qxg6": 1512,
      "##8=Q+": 1513,
      "W-Bxh7+": 1514,
      "W-Kxf3": 1515,
      "B-Raf8": 1516,
      "B-Bxh4": 1517,
      "W-Rd6+": 1518,
      "W-Ba6": 1519,
      "B-Bd4+": 1520,
      "W-Qd4+": 1521,
      "B-Qe2+": 1522,
      "W-cxb6": 1523,
      "B-Qe7+": 1524,
      "B-c1": 1525,
      "W-Nxe2": 1526,
      "B-Bc2": 1527,
      "B-Rxg5": 1528,
      "B-Rxc7": 1529,
      "W-Kxh2": 1530,
      "B-Rxa1": 1531,
      "W-Nf6": 1532,
      "W-Nxd8": 1533,
      "W-Rxb4": 1534,
      "W-Red1": 1535,
      "##h1": 1536,
      "B-f2": 1537,
      "W-Bxh8": 1538,
      "B-Bd2": 1539,
      "W-Rg6": 1540,
      "W-Rxc2": 1541,
      "B-Rf1": 1542,
      "W-Qxf7#": 1543,
      "W-Bg5+": 1544,
      "W-Bxe2": 1545,
      "B-Rf1+": 1546,
      "W-Qg8+": 1547,
      "W-fxe6": 1548,
      "W-bxa3": 1549,
      "B-Ba3": 1550,
      "W-Qg6": 1551,
      "B-Rxg2+": 1552,
      "B-Nce7": 1553,
      "W-c8": 1554,
      "W-Ra8+": 1555,
      "B-Rh1+": 1556,
      "W-Qxc2": 1557,
      "W-Rxb1": 1558,
      "W-Rxg7+": 1559,
      "B-Nf2+": 1560,
      "W-Qxg6+": 1561,
      "W-Rhf1": 1562,
      "W-Qh7+": 1563,
      "B-Qxd4+": 1564,
      "W-Qd6+": 1565,
      "B-Qa1+": 1566,
      "B-Qd5+": 1567,
      "W-Rde1": 1568,
      "W-Nxb4": 1569,
      "W-cxd6": 1570,
      "W-Rh8+": 1571,
      "W-gxh4": 1572,
      "W-Qe6": 1573,
      "W-Bxh5": 1574,
      "W-Nxa7": 1575,
      "B-Ra3+": 1576,
      "B-Kxd6": 1577,
      "B-cxd3": 1578,
      "B-Qxg3+": 1579,
      "W-b8": 1580,
      "B-Bh7": 1581,
      "W-Rxf7+": 1582,
      "B-Rhd8": 1583,
      "B-Nf3": 1584,
      "B-Bb3": 1585,
      "W-Qxe1": 1586,
      "B-Kxe5": 1587,
      "B-Nd4+": 1588,
      "B-Nbc6": 1589,
      "B-Bg4+": 1590,
      "W-Rxa8": 1591,
      "B-bxa6": 1592,
      "B-Qf3": 1593,
      "B-Qe6+": 1594,
      "W-Qb3+": 1595,
      "B-Qxa8": 1596,
      "W-Qb7+": 1597,
      "B-Rxb5": 1598,
      "B-Qg3": 1599,
      "W-Rfb1": 1600,
      "W-Bxa5": 1601,
      "B-Qc2+": 1602,
      "B-Nxb5": 1603,
      "W-Qxb3": 1604,
      "B-Bxf2": 1605,
      "W-Re6+": 1606,
      "W-Ka5": 1607,
      "B-Rh2+": 1608,
      "B-Bxh6": 1609,
      "B-Nf4+": 1610,
      "B-Nf2": 1611,
      "W-Rg8": 1612,
      "W-Kb7": 1613,
      "W-Rh7+": 1614,
      "W-g8": 1615,
      "B-Nxf3": 1616,
      "B-Rd3+": 1617,
      "W-Qxf6+": 1618,
      "W-Qxh7+": 1619,
      "B-Qe3": 1620,
      "B-Qxe8": 1621,
      "B-Nxh5": 1622,
      "W-Bxe6+": 1623,
      "B-Qd3+": 1624,
      "B-Bxa4": 1625,
      "W-Qf4+": 1626,
      "B-Qc4+": 1627,
      "W-Qg7#": 1628,
      "W-Rf6+": 1629,
      "W-Raf1": 1630,
      "B-Rxb7": 1631,
      "W-f8": 1632,
      "W-Ng1": 1633,
      "B-Rg1": 1634,
      "B-Qxd2+": 1635,
      "B-Kxg5": 1636,
      "##xb2": 1637,
      "W-h8=Q": 1638,
      "W-Rhd1": 1639,
      "B-Nxe6": 1640,
      "B-Nxf1": 1641,
      "B-Qxe2": 1642,
      "B-Qa7": 1643,
      "W-Rf1+": 1644,
      "B-Be3+": 1645,
      "B-Rg2": 1646,
      "W-Rxg6": 1647,
      "W-Rxg4": 1648,
      "W-cxb3": 1649,
      "W-Nxh4": 1650,
      "W-Kxd3": 1651,
      "W-Kxe1": 1652,
      "B-Nc8": 1653,
      "B-exf6": 1654,
      "B-Rxg3": 1655,
      "B-Bxe1": 1656,
      "B-Nxe2+": 1657,
      "B-Qg2+": 1658,
      "W-Kxf4": 1659,
      "W-Qxa1": 1660,
      "W-Qh7": 1661,
      "B-Qxf7": 1662,
      "W-dxc3": 1663,
      "B-Ng4+": 1664,
      "W-bxa4": 1665,
      "B-Re3+": 1666,
      "W-gxf6": 1667,
      "W-Nfd2": 1668,
      "W-Qb6": 1669,
      "W-Qg7+": 1670,
      "W-Qxe8+": 1671,
      "B-Kxe8": 1672,
      "B-Rc3+": 1673,
      "B-Qxh1": 1674,
      "W-Kxe3": 1675,
      "B-bxa5": 1676,
      "B-Qxg2#": 1677,
      "W-Qc5+": 1678,
      "B-Bxc1": 1679,
      "B-Rg3": 1680,
      "B-Rfb8": 1681,
      "B-Qf5+": 1682,
      "B-Red8": 1683,
      "B-Qh2+": 1684,
      "B-g1": 1685,
      "B-Bxh2+": 1686,
      "B-Kxf5": 1687,
      "B-h1=Q": 1688,
      "B-Rf8+": 1689,
      "B-Nxd1": 1690,
      "B-Qxe5+": 1691,
      "W-Ra6+": 1692,
      "B-Qg2#": 1693,
      "B-Kxg6": 1694,
      "W-Bxb8": 1695,
      "W-Qc3+": 1696,
      "W-Ndf3": 1697,
      "B-b1=Q": 1698,
      "B-f1": 1699,
      "W-Rb6+": 1700,
      "W-Bxg8": 1701,
      "W-Qxg7#": 1702,
      "B-Ng7": 1703,
      "B-Qxf8": 1704,
      "B-Rxa7": 1705,
      "W-Nbc3": 1706,
      "B-Rf3+": 1707,
      "W-Kxe4": 1708,
      "W-Kxg4": 1709,
      "W-Nxa5": 1710,
      "B-Nxh3": 1711,
      "W-Bd7": 1712,
      "W-Rxe7+": 1713,
      "B-Qg6+": 1714,
      "B-Qh3+": 1715,
      "W-Rxh4": 1716,
      "B-Bxh1": 1717,
      "B-Rg1+": 1718,
      "W-axb6": 1719,
      "W-Nc1": 1720,
      "W-Nxh7": 1721,
      "B-Qxe1+": 1722,
      "W-Qe3+": 1723,
      "B-Nxc1": 1724,
      "B-Bb2": 1725,
      "W-Ka6": 1726,
      "##xh1+": 1727,
      "B-Nxa4": 1728,
      "W-Qh4+": 1729,
      "B-Rxf2+": 1730,
      "B-Qa8": 1731,
      "B-Qxb6": 1732,
      "B-Rb3+": 1733,
      "W-Qf7#": 1734,
      "B-Qxa5": 1735,
      "W-Kxg3": 1736,
      "B-Rxa6": 1737,
      "W-Rg1+": 1738,
      "W-bxa6": 1739,
      "W-Qxa4": 1740,
      "B-Ng3+": 1741,
      "B-Ka2": 1742,
      "W-Bxf6+": 1743,
      "W-Rxa3": 1744,
      "B-Nb7": 1745,
      "W-Be6+": 1746,
      "W-Qxf2": 1747,
      "##xh8+": 1748,
      "W-Bxb2": 1749,
      "B-Qf6+": 1750,
      "B-bxa3": 1751,
      "W-Nxd1": 1752,
      "B-Nxh1": 1753,
      "B-Kxf4": 1754,
      "B-cxb6": 1755,
      "W-Qxa8+": 1756,
      "W-Nc6+": 1757,
      "W-Bb7": 1758,
      "W-Rh6+": 1759,
      "W-Rxf8": 1760,
      "B-Qxg2+": 1761,
      "W-Qd3+": 1762,
      "B-Bxd4+": 1763,
      "B-Nxe2": 1764,
      "W-Bg6": 1765,
      "B-Bg3": 1766,
      "W-Nxa4": 1767,
      "W-Nb7": 1768,
      "B-Nxd8": 1769,
      "W-Qxf8+": 1770,
      "B-gxf3": 1771,
      "W-Ne4+": 1772,
      "W-Qg3+": 1773,
      "B-c1=Q": 1774,
      "B-Nb2": 1775,
      "W-Rc6+": 1776,
      "W-Rxc8+": 1777,
      "B-Rxf1": 1778,
      "B-Rxc1+": 1779,
      "B-Qxf3+": 1780,
      "B-Kxd5": 1781,
      "B-Qd6+": 1782,
      "W-Nc5+": 1783,
      "W-Rxe6+": 1784,
      "B-Kxg4": 1785,
      "B-Kxc7": 1786,
      "B-Rxb1": 1787,
      "B-Nxa3": 1788,
      "B-Qb2+": 1789,
      "##h7+": 1790,
      "W-Nxd3": 1791,
      "W-Rg6+": 1792,
      "B-Qxa1+": 1793,
      "W-Na2": 1794,
      "W-Bxh7": 1795,
      "B-Qh2": 1796,
      "W-Kxh5": 1797,
      "W-gxh6": 1798,
      "W-b8=Q": 1799,
      "B-Qxh2+": 1800,
      "B-Kxc6": 1801,
      "W-Kxc2": 1802,
      "B-cxb2": 1803,
      "W-Nce2": 1804,
      "B-Bb8": 1805,
      "B-Qxc2+": 1806,
      "W-Kxf5": 1807,
      "B-gxh3": 1808,
      "W-Rxa2": 1809,
      "B-Nxa2": 1810,
      "W-c8=Q": 1811,
      "W-Ng2": 1812,
      "B-Nxd6": 1813,
      "B-Na7": 1814,
      "W-Qxc8+": 1815,
      "W-Kxg5": 1816,
      "B-Rxh5": 1817,
      "W-Rdf1": 1818,
      "W-Rcd1": 1819,
      "W-Nb2": 1820,
      "W-Bxc8": 1821,
      "B-g5+": 1822,
      "W-Qh8": 1823,
      "W-Ng6+": 1824,
      "W-Nh6+": 1825,
      "B-Rg3+": 1826,
      "B-Rxc2+": 1827,
      "W-Qxf1": 1828,
      "W-Qa2": 1829,
      "B-Qxc1+": 1830,
      "W-Qxb2": 1831,
      "W-Bxd5+": 1832,
      "B-Qc6+": 1833,
      "W-Kxc3": 1834,
      "W-Qxg7+": 1835,
      "W-Nxa6": 1836,
      "B-Bxe3+": 1837,
      "W-Qxg5+": 1838,
      "W-g8=Q": 1839,
      "W-Nxe3": 1840,
      "W-g4+": 1841,
      "B-Bxf3+": 1842,
      "B-Bf4+": 1843,
      "B-Rcd8": 1844,
      "B-Qe1": 1845,
      "W-Nd7+": 1846,
      "B-Bxb1": 1847,
      "B-Nxh4": 1848,
      "W-Rdg1": 1849,
      "W-Qxf5+": 1850,
      "##xg7": 1851,
      "B-Bxd8": 1852,
      "W-Re5+": 1853,
      "W-Nxg7": 1854,
      "B-Qh1": 1855,
      "W-Qxh7#": 1856,
      "##xb7": 1857,
      "B-Nxh2": 1858,
      "W-Bxe8": 1859,
      "W-Rxh1": 1860,
      "W-Qe8": 1861,
      "B-Kb1": 1862,
      "B-Rg8+": 1863,
      "B-Kxh4": 1864,
      "W-Rbc1": 1865,
      "W-Qxb5+": 1866,
      "B-Qxg4+": 1867,
      "W-Nxf7+": 1868,
      "B-Rxg8": 1869,
      "W-Rc1+": 1870,
      "W-Rxe5+": 1871,
      "B-Qh5+": 1872,
      "W-Rd5+": 1873,
      "W-Rg5+": 1874,
      "W-Bg7": 1875,
      "B-Kd1": 1876,
      "B-Rxh6": 1877,
      "B-Rxb6": 1878,
      "W-Qb4+": 1879,
      "B-Ndf6": 1880,
      "W-Bh5+": 1881,
      "B-Re4+": 1882,
      "B-Qd1": 1883,
      "B-Kxc5": 1884,
      "W-Kh7": 1885,
      "B-Nxa5": 1886,
      "W-Bd5+": 1887,
      "B-Nh": 1888,
      "W-Qg1": 1889,
      "W-Rxb3": 1890,
      "W-Rf4+": 1891,
      "W-f8=Q": 1892,
      "B-Qxc8": 1893,
      "W-Rxg1": 1894,
      "B-Kxh5": 1895,
      "W-Nxe8": 1896,
      "B-Nc3+": 1897,
      "B-Rxh8": 1898,
      "B-Rxe2+": 1899,
      "W-Qh2": 1900,
      "B-dxe6": 1901,
      "W-Bf4+": 1902,
      "W-Bxb5+": 1903,
      "B-g1=Q": 1904,
      "B-Nxe1": 1905,
      "B-Qxb7": 1906,
      "W-Rxg2": 1907,
      "B-Rf4+": 1908,
      "B-Qxf2#": 1909,
      "W-Bxd1": 1910,
      "W-Rxh8": 1911,
      "B-Qh7": 1912,
      "B-Kxc4": 1913,
      "B-fxe3": 1914,
      "B-Qxf4+": 1915,
      "B-Rg4+": 1916,
      "W-Ne7": 1917,
      "B-Nxf2+": 1918,
      "B-Nh3+": 1919,
      "W-Bf7": 1920,
      "B-Bf2": 1921,
      "B-Rh3+": 1922,
      "W-Qf8": 1923,
      "W-Qxh3": 1924,
      "W-Kxh3": 1925,
      "B-Kxb7": 1926,
      "B-Nc4+": 1927,
      "W-Nxe6+": 1928,
      "W-Be5+": 1929,
      "W-Qh3+": 1930,
      "B-Qxh1+": 1931,
      "W-Nxh5": 1932,
      "B-Nxb6": 1933,
      "W-Kxh4": 1934,
      "B-Nd2+": 1935,
      "B-Qf2#": 1936,
      "B-Qb5+": 1937,
      "W-Rf5+": 1938,
      "W-Bd8": 1939,
      "W-Rxc7+": 1940,
      "W-Qxd1": 1941,
      "B-Rxg7": 1942,
      "W-Nxa3": 1943,
      "B-Nxh6": 1944,
      "B-Ne2": 1945,
      "W-Rg3+": 1946,
      "B-Qxd8": 1947,
      "B-Qxg7": 1948,
      "W-Rxb8": 1949,
      "B-Rdf8": 1950,
      "W-Rbd1": 1951,
      "B-Qxd3+": 1952,
      "B-Rbd8": 1953,
      "B-f1=Q": 1954,
      "B-Bxh2": 1955,
      "W-Qxh8+": 1956,
      "W-Ke8": 1957,
      "B-d1=Q": 1958,
      "B-Kh2": 1959,
      "B-Bxa6": 1960,
      "W-Qxe4+": 1961,
      "W-Rxd7+": 1962,
      "B-Qc1": 1963,
      "W-Kg8": 1964,
      "W-d8=Q": 1965,
      "B-Bf5+": 1966,
      "B-Kxh6": 1967,
      "##xg2": 1968,
      "B-Nxg6": 1969,
      "W-Bc6+": 1970,
      "W-Qxf8": 1971,
      "W-Qa1": 1972,
      "B-Qa2": 1973,
      "B-Qxf1+": 1974,
      "B-Rc8+": 1975,
      "W-Bxa4": 1976,
      "B-Nxa6": 1977,
      "W-Rc5+": 1978,
      "B-Bxf8": 1979,
      "B-Bh4+": 1980,
      "W-Qa7": 1981,
      "W-Qxc7+": 1982,
      "B-Qf1": 1983,
      "W-Kxd4": 1984,
      "W-Qxh6+": 1985,
      "W-Nxe5+": 1986,
      "B-Nxg2": 1987,
      "W-Qxc8": 1988,
      "B-Ka1": 1989,
      "W-Rxg3": 1990,
      "W-Qxd6+": 1991,
      "B-Rxe4+": 1992,
      "B-Qxh2#": 1993,
      "W-Rh5+": 1994,
      "B-Rxh1": 1995,
      "B-Kxe4": 1996,
      "B-Kc1": 1997,
      "B-Kg1": 1998,
      "W-Kxc4": 1999,
      "W-Qxg3": 2000,
      "W-Nd4+": 2001,
      "W-g5+": 2002,
      "B-Ba8": 2003,
      "B-Rxh7": 2004,
      "B-Qg8": 2005,
      "W-Kxe5": 2006,
      "W-Rxh3": 2007,
      "B-Qxe1": 2008,
      "W-Kd8": 2009,
      "W-Qxg8+": 2010,
      "W-Qxh5+": 2011,
      "B-Rxg3+": 2012,
      "B-Kxg8": 2013,
      "B-Rf5+": 2014,
      "B-Ra4+": 2015,
      "B-Rbc8": 2016,
      "W-Nxb3": 2017,
      "B-Kxb5": 2018,
      "B-Kxb4": 2019,
      "B-Kxh3": 2020,
      "B-Qxg6": 2021,
      "B-Bxb4+": 2022,
      "W-Bf7+": 2023,
      "B-Bg2": 2024,
      "B-Qa1": 2025,
      "B-Kxd4": 2026,
      "B-f5+": 2027,
      "B-Na": 2028,
      "W-Bg6+": 2029,
      "B-Rd4+": 2030,
      "W-Qxe8": 2031,
      "W-Kf8": 2032,
      "W-Kxg6": 2033,
      "W-f4+": 2034,
      "W-Qxh4": 2035,
      "W-d6+": 2036,
      "B-Qxg5+": 2037,
      "W-f6+": 2038,
      "W-Re4+": 2039,
      "W-Qxc1": 2040,
      "W-Kc8": 2041,
      "B-exd6": 2042,
      "W-Nxh6": 2043,
      "B-Rdg8": 2044,
      "W-Bh6+": 2045,
      "B-Ke1": 2046,
      "W-Nf4+": 2047,
      "B-Qxb2+": 2048,
      "B-Rxe3+": 2049,
      "W-Nb6+": 2050,
      "B-Nxc7": 2051,
      "W-Rxh7+": 2052,
      "W-exf6+": 2053,
      "W-Raxd1": 2054,
      "B-Qxh5": 2055,
      "W-Qxb7+": 2056,
      "W-Ndb5": 2057,
      "B-Qa3+": 2058,
      "W-Rh8#": 2059,
      "W-Qh7#": 2060,
      "W-Qh8#": 2061,
      "W-Rf3+": 2062,
      "B-Rxd2+": 2063,
      "B-Kxc3": 2064,
      "W-Ka7": 2065,
      "W-Nbxd2": 2066,
      "W-Rg4+": 2067,
      "B-Nxf7": 2068,
      "W-exf7+": 2069,
      "W-f5+": 2070,
      "B-Bxa5": 2071,
      "W-Nxh6+": 2072,
      "W-Kxh6": 2073,
      "W-Rd8#": 2074,
      "W-Rce1": 2075,
      "B-Kxa4": 2076,
      "B-Kxa3": 2077,
      "B-Qxh3+": 2078,
      "B-Qb3+": 2079,
      "B-Qh1#": 2080,
      "W-Na": 2081,
      "W-Nxh3": 2082,
      "B-Bxc8": 2083,
      "W-Qc8": 2084,
      "W-Rxg6+": 2085,
      "W-Bc5+": 2086,
      "W-Kxa5": 2087,
      "W-Nd8": 2088,
      "B-Bc1": 2089,
      "B-Be5+": 2090,
      "B-Re5+": 2091,
      "W-Kxb5": 2092,
      "B-Bxg7": 2093,
      "W-Kxb2": 2094,
      "B-Rxb2+": 2095,
      "W-Bh7+": 2096,
      "W-Rd4+": 2097,
      "B-Rxf3+": 2098,
      "W-Qa8": 2099,
      "W-Kxb4": 2100,
      "W-Bd3+": 2101,
      "B-Rb8+": 2102,
      "B-Qxa6": 2103,
      "W-Bd6+": 2104,
      "B-Be4+": 2105,
      "B-Bd3+": 2106,
      "W-Rxh2": 2107,
      "W-Rxf6+": 2108,
      "B-Rg6+": 2109,
      "B-Qxf1": 2110,
      "W-Kxc5": 2111,
      "W-e8=Q": 2112,
      "B-Rxg6": 2113,
      "W-Nc4+": 2114,
      "B-Rc4+": 2115,
      "W-Ra5+": 2116,
      "W-Rb5+": 2117,
      "W-Nh": 2118,
      "B-Bxc7": 2119,
      "W-Bxb3": 2120,
      "W-Bxh4": 2121,
      "B-Bxh5": 2122,
      "B-Rec8": 2123,
      "B-Kxa2": 2124,
      "W-Rxc6+": 2125,
      "B-Qxb4+": 2126,
      "B-N7": 2127,
      "W-Bxc1": 2128,
      "B-Rxh2+": 2129,
      "B-Bd6+": 2130,
      "W-fxg7": 2131,
      "W-Qxb8": 2132,
      "W-Qxb8+": 2133,
      "B-Qxb1+": 2134,
      "B-Bxb7": 2135,
      "B-Nxh3+": 2136,
      "##=R": 2137,
      "W-Bxc2": 2138,
      "B-Qxh4+": 2139,
      "B-Ne5+": 2140,
      "B-Bxa8": 2141,
      "W-Nxg7+": 2142,
      "W-Qa6+": 2143,
      "B-Na3": 2144,
      "B-Qh6+": 2145,
      "W-Kb8": 2146,
      "B-Raxd8": 2147,
      "B-Nd5+": 2148,
      "W-Nb5+": 2149,
      "W-Ba3+": 2150,
      "W-Rdc1": 2151,
      "W-Rxb7+": 2152,
      "W-Rxd6+": 2153,
      "B-Nxg3+": 2154,
      "B-f3+": 2155,
      "W-N2": 2156,
      "W-Bc8": 2157,
      "W-Qb6+": 2158,
      "B-Kxg3": 2159,
      "B-e1=Q": 2160,
      "B-Qxh6": 2161,
      "W-Bxa3": 2162,
      "B-Rxd3+": 2163,
      "B-Rg5+": 2164,
      "W-Nxe1": 2165,
      "W-Bb8": 2166,
      "W-Bxh3": 2167,
      "B-f4+": 2168,
      "W-Rbe1": 2169,
      "B-Rd5+": 2170,
      "B-g3+": 2171,
      "B-Bc3+": 2172,
      "B-Qg1": 2173,
      "B-Kxf3": 2174,
      "B-Rag8": 2175,
      "W-Kh8": 2176,
      "W-h4+": 2177,
      "B-Qxg1+": 2178,
      "B-Bxg3+": 2179,
      "W-Rb1+": 2180,
      "W-Bxa1": 2181,
      "B-Nf5+": 2182,
      "W-Nxc6+": 2183,
      "B-Ngxe5": 2184,
      "B-Nxg2+": 2185,
      "B-Bg5+": 2186,
      "W-Qxg4+": 2187,
      "B-Rb4+": 2188,
      "W-Na6": 2189,
      "W-Be8": 2190,
      "B-Bd1": 2191,
      "B-Bh8": 2192,
      "B-Kxc8": 2193,
      "W-Bxg6+": 2194,
      "B-Nxe4+": 2195,
      "B-Bxb6": 2196,
      "B-g4+": 2197,
      "B-Nxe3+": 2198,
      "B-Rh1#": 2199,
      "W-dxc7": 2200,
      "W-Qxa3": 2201,
      "W-Kxg1": 2202,
      "W-Rec1": 2203,
      "W-Qe8#": 2204,
      "##h2+": 2205,
      "W-Qg8": 2206,
      "B-Qxc1": 2207,
      "W-Kxf6": 2208,
      "W-cxb7": 2209,
      "W-Qxg8": 2210,
      "B-d3+": 2211,
      "B-Bc4+": 2212,
      "W-Bf5+": 2213,
      "W-Qa7+": 2214,
      "W-Re8#": 2215,
      "B-Qh2#": 2216,
      "B-Bg8": 2217,
      "W-Re3+": 2218,
      "B-Qb1": 2219,
      "B-Kf1": 2220,
      "W-Kxd5": 2221,
      "W-exf3": 2222,
      "W-Qxg2": 2223,
      "B-Bxg1": 2224,
      "B-Qxa2+": 2225,
      "B-Qh8": 2226,
      "W-Bg4+": 2227,
      "W-Nxg6+": 2228,
      "B-Kxa5": 2229,
      "W-Qf8#": 2230,
      "B-Rh4+": 2231,
      "B-Re1#": 2232,
      "W-Qa5+": 2233,
      "B-Bf3+": 2234,
      "W-R8": 2235,
      "W-R7": 2236,
      "B-Qxg1": 2237,
      "W-Rxh6+": 2238,
      "B-Nbd5": 2239,
      "W-Qxa7+": 2240,
      "B-c4+": 2241,
      "W-Bb4+": 2242,
      "B-Ra5+": 2243,
      "W-Rxf5+": 2244,
      "B-Bh2+": 2245,
      "B-Nbxd7": 2246,
      "B-Qa2+": 2247,
      "W-Bxf1": 2248,
      "B-Bg3+": 2249,
      "B-Kxh8": 2250,
      "W-Kxe6": 2251,
      "B-Rxb1+": 2252,
      "B-Rce8": 2253,
      "B-c1=Q+": 2254,
      "W-Nxg3": 2255,
      "W-Nh5+": 2256,
      "W-Bf8": 2257,
      "B-Bf1": 2258,
      "B-Bf2+": 2259,
      "B-Bh3+": 2260,
      "W-e5+": 2261,
      "W-Qc2+": 2262,
      "W-O-O-O+": 2263,
      "W-e6+": 2264,
      "W-Bxf5+": 2265,
      "W-Ra8#": 2266,
      "W-Neg5": 2267,
      "B-Rd1#": 2268,
      "W-Bxf2": 2269,
      "B-Bh6+": 2270,
      "W-Kxh7": 2271,
      "W-Kxc1": 2272,
      "W-d8=Q+": 2273,
      "B-a1=Q+": 2274,
      "W-c4+": 2275,
      "B-d4+": 2276,
      "W-Rfe1+": 2277,
      "W-Nxa7+": 2278,
      "W-Nge4": 2279,
      "B-e3+": 2280,
      "W-Rxe4+": 2281,
      "B-Nec6": 2282,
      "B-Qa4+": 2283,
      "B-Bxf7": 2284,
      "B-Bxe8": 2285,
      "B-Kxb3": 2286,
      "W-e8=Q+": 2287,
      "B-d1=Q+": 2288,
      "B-Qxb8": 2289,
      "W-c5+": 2290,
      "B-Ba6+": 2291,
      "B-Bd5+": 2292,
      "B-Bb5+": 2293,
      "B-Nxf4+": 2294,
      "B-Kxa7": 2295,
      "B-Qe1#": 2296,
      "W-Qb8": 2297,
      "W-Kxc6": 2298,
      "B-Rxg1": 2299,
      "B-e4+": 2300,
      "B-Kxb2": 2301,
      "W-Ree7": 2302,
      "B-hxg4+": 2303,
      "B-Rc5+": 2304,
      "B-Nb3+": 2305,
      "W-c8=Q+": 2306,
      "W-N1": 2307,
      "B-Nh3": 2308,
      "B-Nxe8": 2309,
      "B-Be1": 2310,
      "W-Rc3+": 2311,
      "W-Kxb3": 2312,
      "W-dxe7": 2313,
      "W-Rag1": 2314,
      "B-Kh1": 2315,
      "W-Rxg8+": 2316,
      "W-Bxg7+": 2317,
      "W-d5+": 2318,
      "B-h1=Q+": 2319,
      "B-Rdc8": 2320,
      "B-Ra6+": 2321,
      "W-Kxa6": 2322,
      "B-Rxh3+": 2323,
      "W-f8=Q+": 2324,
      "B-Nh4+": 2325,
      "W-Bf6+": 2326,
      "W-Rd3+": 2327,
      "W-Rh4+": 2328,
      "B-h5+": 2329,
      "W-Rxg8": 2330,
      "B-Qc7+": 2331,
      "B-Bxg2+": 2332,
      "B-h4+": 2333,
      "W-Nxb8": 2334,
      "B-Nge5": 2335,
      "B-Rxg4+": 2336,
      "W-Qxf8#": 2337,
      "W-g6+": 2338,
      "B-R1": 2339,
      "B-e1=Q+": 2340,
      "W-Nf3+": 2341,
      "B-Rhc8": 2342,
      "W-Qd2+": 2343,
      "W-Nxd5+": 2344,
      "W-h5+": 2345,
      "W-Nxf5+": 2346,
      "W-Rxg5+": 2347,
      "W-Bd4+": 2348,
      "W-Be4+": 2349,
      "W-Re2+": 2350,
      "W-Qxb1": 2351,
      "W-Rxb8+": 2352,
      "W-Bxg2": 2353,
      "W-Qxd4+": 2354,
      "B-Nb4+": 2355,
      "B-Bxd3+": 2356,
      "B-Qxc5+": 2357,
      "B-Rbe8": 2358,
      "W-Kxa2": 2359,
      "W-Rh3+": 2360,
      "B-Kxe3": 2361,
      "B-Qxa7": 2362,
      "B-Kxb6": 2363,
      "W-Qxc5+": 2364,
      "W-Qd8#": 2365,
      "W-Qa3+": 2366,
      "B-Qa6+": 2367,
      "B-Neg4": 2368,
      "B-b1=Q+": 2369,
      "W-g8=Q+": 2370,
      "W-Nxc2": 2371,
      "W-Na7": 2372,
      "B-Nxh7": 2373,
      "W-Bg1": 2374,
      "W-Ba1": 2375,
      "B-Bb1": 2376,
      "B-Re7+": 2377,
      "B-exf3+": 2378,
      "W-Bxg3": 2379,
      "B-Rxg1+": 2380,
      "B-Nc5+": 2381,
      "B-Rxe5+": 2382,
      "W-Kxa4": 2383,
      "W-b8=Q+": 2384,
      "B-Qf1#": 2385,
      "W-Ne3+": 2386,
      "B-R2": 2387,
      "B-Rf6+": 2388,
      "W-h8=Q+": 2389,
      "B-O-O-O+": 2390,
      "B-Nxa2+": 2391,
      "B-Nxc3+": 2392,
      "B-Ree2": 2393,
      "B-Ree8": 2394,
      "B-Qxc4+": 2395,
      "W-Qb2+": 2396,
      "B-Qe2#": 2397,
      "B-N8": 2398,
      "B-Bg1": 2399,
      "B-Rc6+": 2400,
      "W-Kxf7": 2401,
      "W-Kxh1": 2402,
      "W-Raxc1": 2403,
      "W-f3+": 2404,
      "W-Rhc1": 2405,
      "B-Nxd4+": 2406,
      "B-b4+": 2407,
      "B-Nxg7": 2408,
      "B-Rdd2": 2409,
      "W-Rxd5+": 2410,
      "W-Qc7#": 2411,
      "B-Ncxe5": 2412,
      "B-Rxc3+": 2413,
      "W-Nde2": 2414,
      "W-Nce4": 2415,
      "B-Qd1#": 2416,
      "B-Qa1#": 2417,
      "W-Nh6": 2418,
      "W-Bxe7+": 2419,
      "B-Rh5+": 2420,
      "B-Qxb1": 2421,
      "B-Nxb1": 2422,
      "B-Nxa7": 2423,
      "W-Rd2+": 2424,
      "W-Rdd1": 2425,
      "W-Bxd6+": 2426,
      "W-Qh1": 2427,
      "W-Ree1": 2428,
      "B-Bxf4+": 2429,
      "B-Kxa6": 2430,
      "W-Rc4+": 2431,
      "B-Nde5": 2432,
      "W-Ba7": 2433,
      "W-R5": 2434,
      "B-Rg7+": 2435,
      "B-Rf7+": 2436,
      "B-Kxh2": 2437,
      "W-Ka8": 2438,
      "W-dxe3": 2439,
      "W-Nc3+": 2440,
      "B-Rh8+": 2441,
      "B-h2+": 2442,
      "B-Rxa2+": 2443,
      "B-Bc6+": 2444,
      "W-Qb7#": 2445,
      "W-Qe7#": 2446,
      "B-g1=Q+": 2447,
      "B-f1=Q+": 2448,
      "B-Qxe1#": 2449,
      "B-f2+": 2450,
      "W-Nc8": 2451,
      "W-Nxd7+": 2452,
      "W-Ne8+": 2453,
      "B-Ba2": 2454,
      "W-R6": 2455,
      "B-R4": 2456,
      "B-fxg2": 2457,
      "W-b5+": 2458,
      "W-Bxc5+": 2459,
      "W-Rxc5+": 2460,
      "W-Ra4+": 2461,
      "W-Qxe7#": 2462,
      "W-f7+": 2463,
      "W-Nxf1": 2464,
      "B-Nxf8": 2465,
      "B-Bxh8": 2466,
      "B-Kxf2": 2467,
      "B-exf2+": 2468,
      "B-Bxg6": 2469,
      "B-Qxd5+": 2470,
      "W-Nh4+": 2471,
      "W-Rdh1": 2472,
      "B-Qb7+": 2473,
      "W-gxf5+": 2474,
      "B-Rb5+": 2475,
      "W-Ne8": 2476,
      "W-Nxh2": 2477,
      "B-Qe": 2478,
      "B-e2+": 2479,
      "W-exd5+": 2480,
      "W-Rh1+": 2481,
      "B-Rfxd8": 2482,
      "W-Nbd4": 2483,
      "B-Qg4#": 2484,
      "B-Rcc2": 2485,
      "B-Rxf4+": 2486,
      "W-Rc8#": 2487,
      "W-Rb4+": 2488,
      "W-Rf8#": 2489,
      "W-Nd8+": 2490,
      "W-Qa8#": 2491,
      "W-Ng7": 2492,
      "W-Rf2+": 2493,
      "W-Qe": 2494,
      "W-Be3+": 2495,
      "W-b4+": 2496,
      "B-f6+": 2497,
      "B-Rff8": 2498,
      "B-Qh4#": 2499,
      "W-Ba4+": 2500,
      "B-Bxe4+": 2501,
      "B-Ng5+": 2502,
      "B-Ra1#": 2503,
      "W-Kxa3": 2504,
      "W-Rxf4+": 2505,
      "B-Ned7": 2506,
      "##xg7+": 2507,
      "W-h6+": 2508,
      "W-Be7+": 2509,
      "B-Re6+": 2510,
      "W-Qf": 2511,
      "B-d2+": 2512,
      "B-e5+": 2513,
      "B-c5+": 2514,
      "W-Rfa1": 2515,
      "B-Bxa7": 2516,
      "B-Kxg2": 2517,
      "B-Bb6+": 2518,
      "W-exf5+": 2519,
      "B-h3+": 2520,
      "B-Ba5+": 2521,
      "B-gxf4+": 2522,
      "B-Rxe1#": 2523,
      "B-Bd2+": 2524,
      "B-Rf1#": 2525,
      "B-c3+": 2526,
      "W-Nxf2": 2527,
      "B-N6": 2528,
      "W-Bg7+": 2529,
      "B-R6": 2530,
      "W-a8=Q+": 2531,
      "W-Rfxd1": 2532,
      "W-Bxe5+": 2533,
      "W-Kxb7": 2534,
      "W-Nxg5+": 2535,
      "W-b6+": 2536,
      "W-hxg5+": 2537,
      "W-Qxc4+": 2538,
      "W-Qd7#": 2539,
      "B-Rxc4+": 2540,
      "W-Rg8#": 2541,
      "W-Nd3+": 2542,
      "B-Ne6+": 2543,
      "B-dxc2": 2544,
      "B-b5+": 2545,
      "W-gxf7+": 2546,
      "W-gxf6+": 2547,
      "B-hxg2": 2548,
      "B-Nxb7": 2549,
      "B-Rdd8": 2550,
      "B-Rd6+": 2551,
      "B-Nfe4": 2552,
      "W-Kxa7": 2553,
      "W-hxg6+": 2554,
      "B-Rb1#": 2555,
      "W-Rxe8#": 2556,
      "B-Rg1#": 2557,
      "W-Nb7+": 2558,
      "W-Ng7+": 2559,
      "W-Nxf8+": 2560,
      "B-Ne1+": 2561,
      "W-Bxe1": 2562,
      "W-Bh1": 2563,
      "B-Bxe2+": 2564,
      "W-Qc": 2565,
      "W-Qxh1": 2566,
      "B-Qg7+": 2567,
      "B-Be6+": 2568,
      "B-Bb7+": 2569,
      "W-Kxb6": 2570,
      "W-Rdd7": 2571,
      "W-exd6+": 2572,
      "B-Reb8": 2573,
      "W-Rc2+": 2574,
      "B-Qd2#": 2575,
      "B-fxg4+": 2576,
      "B-Ndxe5": 2577,
      "W-Qxd7#": 2578,
      "B-Rxg5+": 2579,
      "B-Qg1#": 2580,
      "B-Qxh8": 2581,
      "B-Raxc8": 2582,
      "W-Rxb6+": 2583,
      "W-dxe5+": 2584,
      "W-Rxa8+": 2585,
      "W-Bxa2": 2586,
      "B-Rfe8+": 2587,
      "B-Bxc5+": 2588,
      "W-Bc3+": 2589,
      "W-Ng4+": 2590,
      "B-Rxd4+": 2591,
      "W-Nec3": 2592,
      "B-Qxa3+": 2593,
      "W-Qg6#": 2594,
      "B-Qxf1#": 2595,
      "W-Nh7+": 2596,
      "B-N4": 2597,
      "B-N5": 2598,
      "B-Nc1": 2599,
      "W-Bh3+": 2600,
      "W-Rg2+": 2601,
      "W-Qd": 2602,
      "W-Qe1+": 2603,
      "B-dxe2": 2604,
      "B-Ra8+": 2605,
      "W-gxh7+": 2606,
      "B-Rxa1+": 2607,
      "W-Rxa7+": 2608,
      "B-Nxg8": 2609,
      "W-dxc6+": 2610,
      "W-Bxg5+": 2611,
      "B-Ref8": 2612,
      "B-Nxg4+": 2613,
      "W-Nde4": 2614,
      "B-Nxb3+": 2615,
      "W-Rgf1": 2616,
      "W-Qg8#": 2617,
      "W-g7+": 2618,
      "B-Ng2+": 2619,
      "B-Nf1+": 2620,
      "W-Bg8": 2621,
      "W-Bxh1": 2622,
      "W-R3": 2623,
      "##d2+": 2624,
      "B-Nf6+": 2625,
      "B-Rah8": 2626,
      "W-Raa1": 2627,
      "B-Rhb8": 2628,
      "B-Rfa8": 2629,
      "B-Nbxd5": 2630,
      "W-Rad1+": 2631,
      "W-Nxb2": 2632,
      "W-Nxa2": 2633,
      "B-Qc8+": 2634,
      "B-Nd6+": 2635,
      "B-Nfxd4": 2636,
      "W-Rbb1": 2637,
      "B-Nce5": 2638,
      "B-Rcb8": 2639,
      "B-Qb2#": 2640,
      "B-Rxd1#": 2641,
      "B-Rc1#": 2642,
      "B-fxg3+": 2643,
      "W-Qxe8#": 2644,
      "W-N2f3": 2645,
      "W-N5": 2646,
      "W-N3": 2647,
      "W-Nf8+": 2648,
      "B-Nd1": 2649,
      "B-Nxc8": 2650,
      "W-Bb6+": 2651,
      "B-Bh2": 2652,
      "B-Bf1+": 2653,
      "B-Qe8+": 2654,
      "##d6+": 2655,
      "W-Qh5#": 2656,
      "W-Qxa2": 2657,
      "W-hxg4+": 2658,
      "B-hxg5+": 2659,
      "W-Nfxd4": 2660,
      "W-Nfd4": 2661,
      "W-Rh7#": 2662,
      "B-Qxb3+": 2663,
      "B-Qxd1#": 2664,
      "W-Ba6+": 2665,
      "##xb8": 2666,
      "B-g2+": 2667,
      "W-Nxd8+": 2668,
      "W-Nh7": 2669,
      "W-Nxh7+": 2670,
      "B-Ne1": 2671,
      "B-Ng2": 2672,
      "B-Na2": 2673,
      "B-Be2+": 2674,
      "W-R4": 2675,
      "B-R3": 2676,
      "W-Qf2+": 2677,
      "W-Qb1+": 2678,
      "W-Qf1+": 2679,
      "B-Qxh7": 2680,
      "B-axb2": 2681,
      "W-h7+": 2682,
      "B-Raa8": 2683,
      "W-g3+": 2684,
      "W-Bb3+": 2685,
      "B-Nxb8": 2686,
      "B-Nxg1": 2687,
      "W-Bf3+": 2688,
      "W-fxe5+": 2689,
      "W-Reb1": 2690,
      "B-Nfxd5": 2691,
      "B-Rcc8": 2692,
      "B-Rbb8": 2693,
      "W-fxg5+": 2694,
      "B-Rxf5+": 2695,
      "B-Nhf6": 2696,
      "B-Qc1#": 2697,
      "W-Qc8#": 2698,
      "B-Qd": 2699,
      "W-exd3": 2700,
      "W-hxg7": 2701,
      "W-axb7": 2702,
      "W-Nbxd4": 2703,
      "W-Nxb1": 2704,
      "B-fxe4+": 2705,
      "B-Nfg4": 2706,
      "B-b3+": 2707,
      "B-Bxc4+": 2708,
      "W-Rcc7": 2709,
      "B-Kxa8": 2710,
      "W-Ra3+": 2711,
      "W-Qxf4+": 2712,
      "W-Rxd8#": 2713,
      "B-Ndb4": 2714,
      "B-Qh3#": 2715,
      "W-Qxd8#": 2716,
      "B-Rgf8": 2717,
      "B-Ba3+": 2718,
      "##=N": 2719,
      "W-c6+": 2720,
      "W-Nb8": 2721,
      "W-Nxc1": 2722,
      "B-Na8": 2723,
      "B-Nxh2+": 2724,
      "B-Qb8+": 2725,
      "W-Kxd6": 2726,
      "W-e7+": 2727,
      "B-g6+": 2728,
      "B-gxf3+": 2729,
      "W-Rff7": 2730,
      "W-Rff1": 2731,
      "W-Rfg1": 2732,
      "W-Nxg2": 2733,
      "B-Nfd5": 2734,
      "W-Rcc1": 2735,
      "B-Bxg5+": 2736,
      "W-Nfg5": 2737,
      "B-Qxf5+": 2738,
      "W-Nef3": 2739,
      "W-Ba5+": 2740,
      "W-fxg6+": 2741,
      "B-hxg3+": 2742,
      "B-N7f6": 2743,
      "B-Nxd1+": 2744,
      "B-Nxf1+": 2745,
      "B-Nh8": 2746,
      "B-Rh6+": 2747,
      "W-Qxh2": 2748,
      "W-d7+": 2749,
      "W-d4+": 2750,
      "B-Qd7+": 2751,
      "W-Nxg8": 2752,
      "W-Kxg7": 2753,
      "W-Kxb1": 2754,
      "W-Ref1": 2755,
      "B-Ncxd4": 2756,
      "W-Rxa6+": 2757,
      "W-Qxa6+": 2758,
      "W-Rb8#": 2759,
      "B-Qxa5+": 2760,
      "W-Rxf8#": 2761,
      "W-Nxe8+": 2762,
      "W-Qg2+": 2763,
      "B-Qf": 2764,
      "B-bxc2": 2765,
      "W-fxe7": 2766,
      "W-Rhb1": 2767,
      "B-Rhe8+": 2768,
      "W-a5+": 2769,
      "B-exf4+": 2770,
      "B-Rdh8": 2771,
      "B-dxc3+": 2772,
      "W-Rbb7": 2773,
      "B-Ncb4": 2774,
      "W-Rb3+": 2775,
      "B-Rxd5+": 2776,
      "B-Qc2#": 2777,
      "W-Ncb5": 2778,
      "W-Nfe5": 2779,
      "W-Qxb4+": 2780,
      "B-Bc2+": 2781,
      "B-Nhf4": 2782,
      "B-Bxh7": 2783,
      "W-exd7+": 2784,
      "B-Nc6+": 2785,
      "W-Rxh5+": 2786,
      "W-Bxh6+": 2787,
      "W-Rhe1+": 2788,
      "B-a4+": 2789,
      "W-Qg4#": 2790,
      "W-Nxb6+": 2791,
      "B-Rad8+": 2792,
      "B-Ngxe7": 2793,
      "W-Na4+": 2794,
      "W-Bc2+": 2795,
      "W-Rdb1": 2796,
      "W-Qg5#": 2797,
      "B-Nfxe4": 2798,
      "W-Rxd4+": 2799,
      "W-Rcb1": 2800,
      "W-dxe6+": 2801,
      "B-Ncxe4": 2802,
      "W-Nce5": 2803,
      "B-Rxb3+": 2804,
      "W-Nb4+": 2805,
      "W-Qf6#": 2806,
      "B-Qxe2#": 2807,
      "##xg2+": 2808,
      "B-Nh2": 2809,
      "W-Bxh2": 2810,
      "W-Bh7": 2811,
      "B-R5": 2812,
      "B-Rxh1+": 2813,
      "B-Qc": 2814,
      "B-Qf7+": 2815,
      "W-e4+": 2816,
      "W-a4+": 2817,
      "W-Qxb6+": 2818,
      "W-Bd2+": 2819,
      "W-Bxb1": 2820,
      "B-Rxh4+": 2821,
      "W-Rcf1": 2822,
      "B-Nef6": 2823,
      "B-Rxc5+": 2824,
      "W-Bc7+": 2825,
      "B-Nb5+": 2826,
      "B-Ba4+": 2827,
      "W-R1d2": 2828,
      "B-Rxf1#": 2829,
      "B-Nh2+": 2830,
      "B-Nf1": 2831,
      "B-Nxd2+": 2832,
      "B-Be1+": 2833,
      "B-Rb6+": 2834,
      "B-Kxd3": 2835,
      "W-Kxc7": 2836,
      "W-exd7": 2837,
      "##d7+": 2838,
      "B-h6+": 2839,
      "W-b3+": 2840,
      "W-bxc7": 2841,
      "B-Rff2": 2842,
      "W-Nxh5+": 2843,
      "B-Nh5+": 2844,
      "W-Qd1+": 2845,
      "B-Rd7+": 2846,
      "W-Ngxe4": 2847,
      "B-Rc7+": 2848,
      "B-Bxg4+": 2849,
      "B-Nce4": 2850,
      "W-Qxc3+": 2851,
      "B-c2+": 2852,
      "W-c7+": 2853,
      "W-Qa2+": 2854,
      "B-Nexd5": 2855,
      "W-Nexd4": 2856,
      "W-Rge1": 2857,
      "B-Qg3#": 2858,
      "W-cxb7+": 2859,
      "W-Nh1": 2860,
      "B-Nb1": 2861,
      "W-Bf8+": 2862,
      "W-Qb": 2863,
      "W-Qg": 2864,
      "W-Qg1+": 2865,
      "B-Qg": 2866,
      "B-Kxc2": 2867,
      "##c2+": 2868,
      "B-a5+": 2869,
      "B-Qd8+": 2870,
      "W-Bxc4+": 2871,
      "B-Bh5+": 2872,
      "W-Bxf4+": 2873,
      "B-Bxb2+": 2874,
      "W-Rbf1": 2875,
      "W-Nxc5+": 2876,
      "W-Rxh7#": 2877,
      "B-Ned5": 2878,
      "W-Qh6#": 2879,
      "W-Qg2#": 2880,
      "W-Bd7+": 2881,
      "W-Nhf3": 2882,
      "##xb1": 2883,
      "W-Ng3+": 2884,
      "W-Nc8+": 2885,
      "W-Nxc8+": 2886,
      "W-Qc1+": 2887,
      "B-Qb": 2888,
      "W-exf8": 2889,
      "B-exf2": 2890,
      "##b7+": 2891,
      "W-h3+": 2892,
      "W-fxg7+": 2893,
      "W-Rxh4+": 2894,
      "B-Bxb8": 2895,
      "B-Bf6+": 2896,
      "W-Nxg1": 2897,
      "B-Qxb2#": 2898,
      "W-Qxb7#": 2899,
      "W-bxa8=Q": 2900,
      "W-a6+": 2901,
      "W-Red2": 2902,
      "W-Bxb7+": 2903,
      "B-Qxc2#": 2904,
      "W-Qb2#": 2905,
      "B-Qxb5+": 2906,
      "B-Qa7+": 2907,
      "B-R8e7": 2908,
      "B-Nb2+": 2909,
      "##1=R": 2910,
      "W-N4": 2911,
      "B-Nd1+": 2912,
      "B-Nxe1+": 2913,
      "W-Bxc7+": 2914,
      "B-Bg2+": 2915,
      "B-Qg8+": 2916,
      "W-exf7": 2917,
      "B-Ra7+": 2918,
      "W-Rae1+": 2919,
      "##c7+": 2920,
      "B-dxe4+": 2921,
      "B-Kxb8": 2922,
      "B-Ra8#": 2923,
      "W-Ngxe2": 2924,
      "B-Bxd5+": 2925,
      "W-Bxd4+": 2926,
      "W-Rfd1+": 2927,
      "W-Qh2+": 2928,
      "B-Ncd7": 2929,
      "B-Rb7+": 2930,
      "W-Rb2+": 2931,
      "W-Ned2": 2932,
      "W-Ned4": 2933,
      "B-Rxe6+": 2934,
      "B-Rxb4+": 2935,
      "B-Qxd2#": 2936,
      "W-R1e2": 2937,
      "W-Rh6#": 2938,
      "B-Rge8": 2939,
      "B-Qf3#": 2940,
      "B-Qe3#": 2941,
      "B-Qb1#": 2942,
      "W-Nf8": 2943,
      "W-Ng8+": 2944,
      "W-Nxh8+": 2945,
      "B-Nc1+": 2946,
      "B-R7": 2947,
      "W-Qxe1+": 2948,
      "B-Qf8+": 2949,
      "##c4+": 2950,
      "##f4+": 2951,
      "W-Rah1": 2952,
      "B-gxf2+": 2953,
      "B-exd4+": 2954,
      "W-Rh2+": 2955,
      "W-dxc5+": 2956,
      "W-Bg3+": 2957,
      "B-Bxe5+": 2958,
      "B-gxh4+": 2959,
      "B-Nxc4+": 2960,
      "B-Rh8#": 2961,
      "B-gxf5+": 2962,
      "B-Nxb4+": 2963,
      "W-Ncxe4": 2964,
      "W-Ncd5": 2965,
      "W-Qa1+": 2966,
      "W-Rxb5+": 2967,
      "B-Rxh2#": 2968,
      "W-Rgd1": 2969,
      "W-Qxg6#": 2970,
      "W-Qe6#": 2971,
      "B-Nf2#": 2972,
      "B-cxb2+": 2973,
      "B-N7b6": 2974,
      "W-N1d2": 2975,
      "B-N8d7": 2976,
      "##=B": 2977,
      "W-Bh8": 2978,
      "W-Rxe1+": 2979,
      "B-Qxf6+": 2980,
      "B-Kxc1": 2981,
      "B-Raxb8": 2982,
      "W-Ra2+": 2983,
      "B-cxd2": 2984,
      "W-Qxg1": 2985,
      "B-Qxg8": 2986,
      "W-Bxb6+": 2987,
      "W-Nd2+": 2988,
      "B-Rfe7": 2989,
      "W-Bb2+": 2990,
      "W-Nxe4+": 2991,
      "W-Rac1+": 2992,
      "W-Rde2": 2993,
      "B-fxe5+": 2994,
      "B-bxa2": 2995,
      "W-Qf5#": 2996,
      "W-axb4+": 2997,
      "W-Nxb5+": 2998,
      "W-Ndxb5": 2999,
      "B-Bxa3+": 3000,
      "W-Ncxe5": 3001,
      "W-Ncd2": 3002,
      "W-Qxe3+": 3003,
      "B-Rxa3+": 3004,
      "B-Qxe6+": 3005,
      "W-Kxa1": 3006,
      "W-b7+": 3007,
      "W-Bxg4+": 3008,
      "B-Qa8+": 3009,
      "B-Qg7#": 3010,
      "W-Nxb7+": 3011,
      "B-exd3+": 3012,
      "B-Rh2#": 3013,
      "W-Rxg4+": 3014,
      "B-Na2+": 3015,
      "W-Na7+": 3016,
      "W-N2b3": 3017,
      "W-exf8=Q+": 3018,
      "W-Ng8": 3019,
      "W-R2": 3020,
      "W-Rxf2+": 3021,
      "W-Rxh8+": 3022,
      "B-Rxf6+": 3023,
      "B-Qxe7+": 3024,
      "B-Kxd2": 3025,
      "##f5+": 3026,
      "B-Rae8+": 3027,
      "W-Ra1+": 3028,
      "B-Be7+": 3029,
      "W-Be2+": 3030,
      "B-Bd7+": 3031,
      "W-Qxh4+": 3032,
      "B-Rh7+": 3033,
      "B-Rhg2+": 3034,
      "W-Qb3#": 3035,
      "B-Na5+": 3036,
      "B-Nxh4+": 3037,
      "W-Bh4+": 3038,
      "W-Bxe4+": 3039,
      "W-Rdd8": 3040,
      "W-gxh6+": 3041,
      "B-axb4+": 3042,
      "W-gxf4+": 3043,
      "B-Qxh3#": 3044,
      "B-fxg5+": 3045,
      "B-R8d7": 3046,
      "B-R8f7": 3047,
      "B-Rh3#": 3048,
      "W-Qb6#": 3049,
      "W-Na6+": 3050,
      "W-Qxa3+": 3051,
      "W-N5c3": 3052,
      "##xg8": 3053,
      "##a7+": 3054,
      "W-Be8+": 3055,
      "B-Bh1": 3056,
      "B-Rxe8+": 3057,
      "B-Qxe8+": 3058,
      "W-Kxd8": 3059,
      "B-exd2": 3060,
      "W-cxd8": 3061,
      "W-cxd7": 3062,
      "W-cxd7+": 3063,
      "B-fxe2": 3064,
      "W-Qxg3+": 3065,
      "B-Qxh5+": 3066,
      "W-Bxh5+": 3067,
      "B-cxd4+": 3068,
      "B-gxh2": 3069,
      "B-gxh2+": 3070,
      "W-gxh7": 3071,
      "B-Nxe5+": 3072,
      "B-dxc4+": 3073,
      "W-Qg3#": 3074,
      "B-Rfd8+": 3075,
      "W-axb5+": 3076,
      "W-Red3": 3077,
      "W-Ra7#": 3078,
      "B-bxc5+": 3079,
      "B-Bc7+": 3080,
      "W-Ndc4": 3081,
      "B-Rbb2": 3082,
      "W-Qxc7#": 3083,
      "W-Qxh6#": 3084,
      "W-Rxa5+": 3085,
      "B-Ndc5": 3086,
      "B-Qa4#": 3087,
      "W-Rxc4+": 3088,
      "W-Nf7#": 3089,
      "W-Bxf7#": 3090,
      "B-Rgd8": 3091,
      "W-cxb6+": 3092,
      "W-fxe6+": 3093,
      "W-Qxa4+": 3094,
      "B-Nac6": 3095,
      "W-N1c3": 3096,
      "B-Ng1+": 3097,
      "B-Nxc1+": 3098,
      "W-Bc1+": 3099,
      "B-Bg6+": 3100,
      "B-Ba1": 3101,
      "B-Bxc2+": 3102,
      "W-Qxe2+": 3103,
      "W-Kxe7": 3104,
      "W-Kxc8": 3105,
      "##c5+": 3106,
      "##xa7": 3107,
      "##b3+": 3108,
      "W-a7+": 3109,
      "W-gxf7": 3110,
      "W-Rhh1": 3111,
      "B-Qg5#": 3112,
      "W-Qxf3+": 3113,
      "W-Nxa1": 3114,
      "B-Qg6#": 3115,
      "B-Rac8+": 3116,
      "W-Ra1#": 3117,
      "B-Rdb8": 3118,
      "B-bxc4+": 3119,
      "W-gxh5+": 3120,
      "B-Nfd4": 3121,
      "B-Qh7+": 3122,
      "B-Kxa1": 3123,
      "W-Qd6#": 3124,
      "B-Qe4#": 3125,
      "W-Rxe3+": 3126,
      "W-Nxf4+": 3127,
      "W-Na5+": 3128,
      "B-Na4+": 3129,
      "W-Bb7+": 3130,
      "W-Bd8+": 3131,
      "##8=R": 3132,
      "W-N7": 3133,
      "W-Ba8": 3134,
      "B-Kxh1": 3135,
      "W-dxe8": 3136,
      "##xa5": 3137,
      "W-hxg7+": 3138,
      "B-d5+": 3139,
      "##b2+": 3140,
      "B-Raa2": 3141,
      "W-c3+": 3142,
      "B-fxg2+": 3143,
      "B-Rhh8": 3144,
      "B-Rfxf2": 3145,
      "B-Bxh4+": 3146,
      "##xf1=Q+": 3147,
      "W-Rd7#": 3148,
      "B-Qb4#": 3149,
      "W-bxa7": 3150,
      "W-Qh4#": 3151,
      "B-Rde7": 3152,
      "B-Bxf5+": 3153,
      "B-Rea8": 3154,
      "B-Qh8+": 3155,
      "B-Bxh3+": 3156,
      "B-Rcf8": 3157,
      "W-Ndxe4": 3158,
      "B-Qxc6+": 3159,
      "B-Rbf8": 3160,
      "W-cxb5+": 3161,
      "W-fxg3+": 3162,
      "W-Ncxd5": 3163,
      "W-Nfxd5": 3164,
      "B-Rxa4+": 3165,
      "B-Qxg4#": 3166,
      "B-Ndc6": 3167,
      "B-Nde7": 3168,
      "B-Bf3#": 3169,
      "B-Qxa4+": 3170,
      "B-Nxb2+": 3171,
      "W-bxc6+": 3172,
      "B-Qxg3#": 3173,
      "B-axb3+": 3174,
      "B-Bb3+": 3175,
      "W-Qxb3+": 3176,
      "W-Nb2+": 3177,
      "B-Qa2#": 3178,
      "W-Qxc8#": 3179,
      "W-Nhf5": 3180,
      "B-N7c6": 3181,
      "B-Qxg1#": 3182,
      "W-Qb8#": 3183,
      "W-R4e2": 3184,
      "##8=N": 3185,
      "##xg1": 3186,
      "W-Na1": 3187,
      "B-Nxh8": 3188,
      "B-Nxh1+": 3189,
      "W-Bxf8+": 3190,
      "##d5+": 3191,
      "W-a3+": 3192,
      "B-b6+": 3193,
      "W-Nxd4+": 3194,
      "B-Qxb6+": 3195,
      "B-Rxh5+": 3196,
      "B-Nxd5+": 3197,
      "B-Bxg8": 3198,
      "W-Ne2+": 3199,
      "##xc8=Q+": 3200,
      "B-Kxb1": 3201,
      "W-Nb3+": 3202,
      "W-Qf4#": 3203,
      "W-Rdd2": 3204,
      "W-Rde1+": 3205,
      "B-bxa1=Q": 3206,
      "W-Qb5#": 3207,
      "B-Rdd7": 3208,
      "B-a3+": 3209,
      "W-Ree2": 3210,
      "W-Reg1": 3211,
      "W-fxe4+": 3212,
      "B-Ree7": 3213,
      "B-Nfe7": 3214,
      "B-Qd4#": 3215,
      "W-Rh1#": 3216,
      "W-Qb4#": 3217,
      "B-Qb5#": 3218,
      "W-Rba1": 3219,
      "B-Ncd4": 3220,
      "B-Qb7#": 3221,
      "B-cxb4+": 3222,
      "W-Qxg5#": 3223,
      "W-Ncxb5": 3224,
      "W-Nfd5": 3225,
      "B-b2+": 3226,
      "B-bxc3+": 3227,
      "B-Qd3#": 3228,
      "B-Bxb3+": 3229,
      "W-R1e3": 3230,
      "W-R1f2": 3231,
      "B-Rxc1#": 3232,
      "W-Rgh1": 3233,
      "W-Rf7#": 3234,
      "B-R8f6": 3235,
      "B-Bb2+": 3236,
      "B-Qxa6+": 3237,
      "B-N6d7": 3238,
      "B-N5f6": 3239,
      "B-N5c6": 3240,
      "W-cxd8=Q+": 3241,
      "B-N2": 3242,
      "B-Bc1+": 3243,
      "W-Rxf3+": 3244,
      "W-Rxd1+": 3245,
      "W-Rxe2+": 3246,
      "B-Rxc7+": 3247,
      "W-Kxf8": 3248,
      "##xa2": 3249,
      "W-Rfe2": 3250,
      "W-Rfe3": 3251,
      "W-Rfh1": 3252,
      "B-Rha8": 3253,
      "B-Rfc7": 3254,
      "B-Rff7": 3255,
      "B-Qa5#": 3256,
      "B-Bxa2+": 3257,
      "W-Nxa8+": 3258,
      "W-Qd5#": 3259,
      "B-gxh5+": 3260,
      "W-Rdd3": 3261,
      "B-Rde8+": 3262,
      "B-Rda8": 3263,
      "W-Qe4#": 3264,
      "W-Rea1": 3265,
      "B-Rec7": 3266,
      "B-Rexd8": 3267,
      "B-Re2#": 3268,
      "W-Rcc3": 3269,
      "B-Rcd7": 3270,
      "B-Ra2#": 3271,
      "B-Bxb5+": 3272,
      "B-Nxc5+": 3273,
      "W-Bxa6+": 3274,
      "W-Nfe2": 3275,
      "W-Nfxg5": 3276,
      "W-Bxb4+": 3277,
      "B-Qa3#": 3278,
      "B-Nef5": 3279,
      "W-Nec4": 3280,
      "W-Nexg5": 3281,
      "B-bxa4+": 3282,
      "W-Rxh6#": 3283,
      "W-Qc6#": 3284,
      "W-Rxc8#": 3285,
      "W-a8=Q#": 3286,
      "W-R1c2": 3287,
      "B-dxe3+": 3288,
      "B-Qb3#": 3289,
      "W-Rxa4+": 3290,
      "B-R8g7": 3291,
      "B-R8c7": 3292,
      "B-Ng3#": 3293,
      "B-Rgf7": 3294,
      "B-Rgh8": 3295,
      "W-c8=R": 3296,
      "B-Nf3#": 3297,
      "W-Rxa3+": 3298,
      "W-Qxg8#": 3299,
      "B-N4c6": 3300,
      "W-Na8": 3301,
      "W-Nxh1": 3302,
      "B-Ng6+": 3303,
      "B-Ne8+": 3304,
      "B-Nh7+": 3305,
      "B-Bd1+": 3306,
      "B-Bc8+": 3307,
      "W-Rxc2+": 3308,
      "B-Rxd7+": 3309,
      "B-Qxh7+": 3310,
      "B-Qxc7+": 3311,
      "B-Kxd1": 3312,
      "B-Kxf1": 3313,
      "W-Kxd7": 3314,
      "W-Kxh8": 3315,
      "B-exd2+": 3316,
      "W-dxc7+": 3317,
      "##d8+": 3318,
      "B-Raa7": 3319,
      "W-Raa3": 3320,
      "B-cxd2+": 3321,
      "W-h3#": 3322,
      "W-Bxg1": 3323,
      "B-Rxg7+": 3324,
      "W-gxf8": 3325,
      "W-Rha1": 3326,
      "B-Rff6": 3327,
      "B-Rfd7": 3328,
      "B-Rfd2": 3329,
      "B-Rfg7": 3330,
      "B-Rfd6": 3331,
      "B-Qb6#": 3332,
      "W-cxd5+": 3333,
      "##xe1=Q": 3334,
      "##a2#": 3335,
      "B-Nxh5+": 3336,
      "W-Rde7": 3337,
      "W-Rde3": 3338,
      "W-fxe3+": 3339,
      "B-Qf4#": 3340,
      "W-Qh1+": 3341,
      "W-Ree3": 3342,
      "W-Rec2": 3343,
      "W-Rexd1": 3344,
      "B-Qc8#": 3345,
      "B-Red7": 3346,
      "W-gxh4+": 3347,
      "B-Nfxd7": 3348,
      "W-Qxe6#": 3349,
      "W-Re7#": 3350,
      "W-bxc5+": 3351,
      "B-Nc2#": 3352,
      "W-Rcb2": 3353,
      "W-Nxc4+": 3354,
      "B-exf5+": 3355,
      "B-Rbxc8": 3356,
      "W-Qe5#": 3357,
      "B-Ndxb4": 3358,
      "W-fxg4+": 3359,
      "W-Rh5#": 3360,
      "B-Rh7#": 3361,
      "B-Nexg4": 3362,
      "W-Ned5": 3363,
      "B-Nxg5+": 3364,
      "W-Qa5#": 3365,
      "B-a1=Q#": 3366,
      "B-Rgb8": 3367,
      "B-Rgg8": 3368,
      "W-Nf6#": 3369,
      "B-Rxb5+": 3370,
      "W-f8=Q#": 3371,
      "B-g1=Q#": 3372,
      "W-Qxh3+": 3373,
      "W-Bxa4+": 3374,
      "W-Qa7#": 3375,
      "B-N7g6": 3376,
      "W-N2c3": 3377,
      "W-Neg5+": 3378,
      "W-R5d2": 3379,
      "B-N4a6": 3380,
      "##=N+": 3381,
      "##xh4": 3382,
      "W-N6": 3383,
      "W-Nh8": 3384,
      "B-N3": 3385,
      "B-Ng1": 3386,
      "W-Bd1+": 3387,
      "W-Bg8+": 3388,
      "B-Bxf6+": 3389,
      "W-Rxh2+": 3390,
      "W-Rxf1+": 3391,
      "B-Rxe7+": 3392,
      "B-Q1": 3393,
      "B-Qxf7+": 3394,
      "B-Kxe2": 3395,
      "B-exd1": 3396,
      "##e2#": 3397,
      "##xa3": 3398,
      "B-cxd1": 3399,
      "B-a6+": 3400,
      "##xd6+": 3401,
      "W-cxb8": 3402,
      "W-Bg5#": 3403,
      "##a5+": 3404,
      "##xd3+": 3405,
      "B-g5#": 3406,
      "B-Qxh6+": 3407,
      "W-gxh8": 3408,
      "W-Rfd2": 3409,
      "W-Rfc1+": 3410,
      "W-Rhf1+": 3411,
      "B-Rhg8+": 3412,
      "B-Nba6": 3413,
      "W-Kf3+": 3414,
      "B-exd5+": 3415,
      "W-Qxa1+": 3416,
      "B-Qd6#": 3417,
      "W-Qa4#": 3418,
      "B-Ngxf6": 3419,
      "B-Kxg1": 3420,
      "B-Nxg1+": 3421,
      "W-Qd1#": 3422,
      "W-Na3+": 3423,
      "W-Bxe6#": 3424,
      "##h2#": 3425,
      "W-Kxg8": 3426,
      "W-Ngxe6": 3427,
      "W-Rdc2": 3428,
      "W-Rda1": 3429,
      "W-exd4+": 3430,
      "W-Nh3+": 3431,
      "W-Qxd3+": 3432,
      "B-Rde6": 3433,
      "W-Rab1+": 3434,
      "B-Qxd6+": 3435,
      "B-Bf8+": 3436,
      "W-Ree6": 3437,
      "W-Ref2": 3438,
      "B-Rab8+": 3439,
      "B-Ref7": 3440,
      "B-Reg8": 3441,
      "B-Ra3#": 3442,
      "W-Ra6#": 3443,
      "B-hxg6+": 3444,
      "B-Nd3#": 3445,
      "W-Rbxb7": 3446,
      "B-Rd5#": 3447,
      "W-bxc4+": 3448,
      "W-Rf4#": 3449,
      "W-Rce2": 3450,
      "W-Rcd2": 3451,
      "W-Rcc2": 3452,
      "B-Ncd5": 3453,
      "W-Nde5": 3454,
      "W-Ndxe2": 3455,
      "W-Rh3#": 3456,
      "B-Rbb7": 3457,
      "B-Re5#": 3458,
      "W-Ncd4": 3459,
      "W-Ncxe6": 3460,
      "W-Nfxe5": 3461,
      "W-Nc2+": 3462,
      "B-Ndf8": 3463,
      "W-Kxa8": 3464,
      "W-Rxd3+": 3465,
      "B-Rxh3#": 3466,
      "B-Rh4#": 3467,
      "B-Rf2#": 3468,
      "B-Rh5#": 3469,
      "W-R1d6": 3470,
      "W-Rgg7": 3471,
      "W-Rgg1": 3472,
      "W-Rgh2": 3473,
      "W-Qxa5+": 3474,
      "B-Rgg2": 3475,
      "W-Rxb2+": 3476,
      "W-Nxb4+": 3477,
      "W-h8=Q#": 3478,
      "B-h1=Q#": 3479,
      "B-Rxb1#": 3480,
      "W-c8=Q#": 3481,
      "W-g8=Q#": 3482,
      "B-fxe3+": 3483,
      "W-Bf7#": 3484,
      "W-Qa1#": 3485,
      "W-Nab5": 3486,
      "W-e8=Q#": 3487,
      "W-Nhg4": 3488,
      "##=R+": 3489,
      "B-Na3+": 3490,
      "W-N2g3": 3491,
      "W-N1h2": 3492,
      "B-N8e7": 3493,
      "B-N6h5": 3494,
      "W-Ng2+": 3495,
      "W-Nf2+": 3496,
      "W-Nb1+": 3497,
      "B-Ng7+": 3498,
      "B-Nf7+": 3499,
      "W-Ba7+": 3500,
      "B-Bg1+": 3501,
      "B-Rxf7+": 3502,
      "B-Rxd8+": 3503,
      "B-Rxc8+": 3504,
      "W-Q8": 3505,
      "W-Qxh2+": 3506,
      "B-Qxc8+": 3507,
      "B-Kxe1": 3508,
      "B-exf1=Q+": 3509,
      "W-dxc8=Q+": 3510,
      "##g4+": 3511,
      "##e7#": 3512,
      "##d7#": 3513,
      "##xa4": 3514,
      "B-a2+": 3515,
      "B-axb1": 3516,
      "##e3#": 3517,
      "##e1#": 3518,
      "B-Rab6": 3519,
      "B-Raxe8": 3520,
      "W-Raa6": 3521,
      "W-Raa7": 3522,
      "W-Raxb1": 3523,
      "B-Bg7+": 3524,
      "B-Qxg6+": 3525,
      "B-Rxb6+": 3526,
      "B-Bf5#": 3527,
      "W-Rfxe1": 3528,
      "W-Rfxc1": 3529,
      "W-Rhxf1": 3530,
      "W-Rhg1+": 3531,
      "B-Rhe2": 3532,
      "B-Rhf7": 3533,
      "B-Rff5": 3534,
      "B-Rfg8": 3535,
      "B-Rfxc8": 3536,
      "W-Kf1+": 3537,
      "W-Kg3+": 3538,
      "B-Rf8#": 3539,
      "##xb3+": 3540,
      "##xe1=Q+": 3541,
      "W-Bxa7+": 3542,
      "##xc8=Q": 3543,
      "##a7#": 3544,
      "B-Rd2#": 3545,
      "B-Nxa8": 3546,
      "W-Ngh3": 3547,
      "W-Ngxf7": 3548,
      "W-Rdxd3": 3549,
      "W-Rc7#": 3550,
      "B-axb5+": 3551,
      "B-Rdd3": 3552,
      "B-Rdc7": 3553,
      "W-Ree5": 3554,
      "W-Rexe7+": 3555,
      "B-Qh5#": 3556,
      "B-Ree3": 3557,
      "B-Red6": 3558,
      "W-Rbc7": 3559,
      "W-Rbg1": 3560,
      "W-Rbxc1": 3561,
      "W-Qxf6#": 3562,
      "B-Ncb6": 3563,
      "B-Rcg2+": 3564,
      "B-Qxf3#": 3565,
      "W-Ndc3": 3566,
      "W-Ndf5": 3567,
      "W-Ndxf3": 3568,
      "W-Qh3#": 3569,
      "W-Qc5#": 3570,
      "B-Ra5#": 3571,
      "B-Nc7+": 3572,
      "W-Ncxe2": 3573,
      "W-Nfxd2": 3574,
      "B-Qh6#": 3575,
      "B-Bd8+": 3576,
      "B-Ndxc5": 3577,
      "B-Nec5": 3578,
      "W-Bc6#": 3579,
      "W-Nef4": 3580,
      "B-Rxd6+": 3581,
      "W-Qa6#": 3582,
      "W-Nxg4+": 3583,
      "W-R1d3": 3584,
      "W-R1e7+": 3585,
      "W-Rgf2": 3586,
      "B-R8c6": 3587,
      "B-R8e6": 3588,
      "B-Rxa5+": 3589,
      "B-cxb3+": 3590,
      "B-Rxc6+": 3591,
      "B-Rgc8": 3592,
      "B-Rgxg2": 3593,
      "W-Rxc3+": 3594,
      "W-Rxb4+": 3595,
      "##h1#": 3596,
      "W-cxd6+": 3597,
      "W-axb6+": 3598,
      "W-Bg6#": 3599,
      "B-gxh3+": 3600,
      "W-Nxa6+": 3601,
      "B-Naxc5": 3602,
      "W-Nac6": 3603,
      "W-Nac5": 3604,
      "B-Qh8#": 3605,
      "W-R7d6+": 3606,
      "B-R2e3+": 3607,
      "W-R6d3": 3608,
      "W-R3d2": 3609,
      "W-N3h4": 3610,
      "B-axb2+": 3611,
      "W-N4b3": 3612,
      "W-dxe8=Q+": 3613,
      "##a2+": 3614,
      "W-Nb8+": 3615,
      "B-Na1": 3616,
      "B-Nh1": 3617,
      "W-Bxd8+": 3618,
      "W-Be1+": 3619,
      "W-Bxd2+": 3620,
      "W-Bb8+": 3621,
      "W-Bxc8+": 3622,
      "B-Bf7+": 3623,
      "B-Bxd1+": 3624,
      "B-Bxe1+": 3625,
      "W-Rxd2+": 3626,
      "W-Qxf2+": 3627,
      "B-Qxd7+": 3628,
      "W-exd8": 3629,
      "W-d8=N": 3630,
      "B-dxe1=Q": 3631,
      "##g5+": 3632,
      "##d6#": 3633,
      "W-Rae7": 3634,
      "W-Rab3": 3635,
      "W-Raf2": 3636,
      "W-Raxe1": 3637,
      "W-Raxa7": 3638,
      "B-g6#": 3639,
      "B-c6+": 3640,
      "##xf5+": 3641,
      "##xg5+": 3642,
      "W-Bd3#": 3643,
      "##a5#": 3644,
      "W-fxe8": 3645,
      "W-fxg8": 3646,
      "W-Qxb1+": 3647,
      "B-Qxg7+": 3648,
      "W-Rxg1+": 3649,
      "B-Qe7#": 3650,
      "W-Qf3#": 3651,
      "B-Rxg6+": 3652,
      "B-gxf2": 3653,
      "B-gxf1=Q+": 3654,
      "W-Rff3": 3655,
      "W-Rfd3": 3656,
      "W-Rhf4": 3657,
      "W-Rhf2": 3658,
      "B-Rhh2": 3659,
      "W-Ng5#": 3660,
      "B-h1=R": 3661,
      "B-Qd7#": 3662,
      "B-Bxf3#": 3663,
      "W-Bxf6#": 3664,
      "W-Qd3#": 3665,
      "W-Nbd6": 3666,
      "W-Nbxc3": 3667,
      "B-Qxa7+": 3668,
      "B-Qxa8+": 3669,
      "B-Qxd5#": 3670,
      "W-Qe3#": 3671,
      "B-g4#": 3672,
      "W-Nxg8+": 3673,
      "B-Nge6": 3674,
      "W-Qxd5#": 3675,
      "W-Nd6#": 3676,
      "W-Bd5#": 3677,
      "B-Qc5#": 3678,
      "W-Qc4#": 3679,
      "B-Qf5#": 3680,
      "W-Rde4": 3681,
      "W-Rdf2": 3682,
      "W-Rdxf7": 3683,
      "W-Rdxd7": 3684,
      "##a1#": 3685,
      "W-Bh6#": 3686,
      "B-Rdd4": 3687,
      "B-Rdd1": 3688,
      "B-Rdf7": 3689,
      "B-Rdg8+": 3690,
      "W-Nxf7#": 3691,
      "W-Qxc6#": 3692,
      "W-Rd6#": 3693,
      "W-Ree8": 3694,
      "W-Rexe6": 3695,
      "W-Reh1": 3696,
      "W-Qe1#": 3697,
      "W-Nc7#": 3698,
      "B-Ref6": 3699,
      "W-Qxg4#": 3700,
      "B-Nfxg4": 3701,
      "W-Bxc3+": 3702,
      "W-Rbd1+": 3703,
      "W-Qf2#": 3704,
      "W-Rcc6": 3705,
      "W-Rcg1": 3706,
      "W-Rca1": 3707,
      "W-Rch1": 3708,
      "B-Nce6": 3709,
      "B-Ncxe7": 3710,
      "B-Ncd3+": 3711,
      "B-Rce7": 3712,
      "B-Rcc7": 3713,
      "B-Qxa2#": 3714,
      "B-Qc4#": 3715,
      "W-Ndxf7": 3716,
      "B-Qxf4#": 3717,
      "B-Nxf2#": 3718,
      "B-Rbe7": 3719,
      "B-Rbb3": 3720,
      "B-Rba8": 3721,
      "B-Rxf2#": 3722,
      "W-Ncxd4": 3723,
      "W-Nce3": 3724,
      "W-Ncd6": 3725,
      "W-Qxb5#": 3726,
      "W-dxc4+": 3727,
      "B-Nde4": 3728,
      "W-Nxc7#": 3729,
      "B-Nec3": 3730,
      "B-Neg6": 3731,
      "B-Nexd7": 3732,
      "W-Rh4#": 3733,
      "W-Rf6#": 3734,
      "B-Be3#": 3735,
      "W-R1f3": 3736,
      "W-R1d4": 3737,
      "W-R1h2": 3738,
      "W-R1d7+": 3739,
      "W-Rgg6": 3740,
      "W-Rgd7": 3741,
      "W-Rgc1": 3742,
      "W-Rgb1": 3743,
      "W-Rxh5#": 3744,
      "B-R8e5": 3745,
      "B-R8d2+": 3746,
      "B-Rf3#": 3747,
      "B-Rgf2+": 3748,
      "B-Rgf8+": 3749,
      "B-Bxf2#": 3750,
      "B-Bxa4+": 3751,
      "B-Nxe6+": 3752,
      "W-Nxa5+": 3753,
      "B-c1=Q#": 3754,
      "B-Nxa3+": 3755,
      "W-Qxb2+": 3756,
      "B-Nhf5": 3757,
      "B-Qxb7+": 3758,
      "W-d8=Q#": 3759,
      "W-Rxh3+": 3760,
      "B-Nac4": 3761,
      "B-Bxa5+": 3762,
      "W-Nac3": 3763,
      "W-Nac4": 3764,
      "W-Nac2": 3765,
      "W-Naxc4": 3766,
      "W-Bxb3+": 3767,
      "B-Qxc1#": 3768,
      "W-R7c6": 3769,
      "B-Rxg1#": 3770,
      "B-R1d2+": 3771,
      "B-N8f6": 3772,
      "B-N6d5": 3773,
      "B-R6d7": 3774,
      "W-Qbb7+": 3775,
      "W-Ncd5+": 3776,
      "##=B+": 3777,
      "B-axb1=Q": 3778,
      "##xh6": 3779,
      "W-Nf1+": 3780,
      "B-Nxf6+": 3781,
      "B-Nh6+": 3782,
      "W-Bf1+": 3783,
      "B-Bb8+": 3784,
      "B-Rxh7+": 3785,
      "B-Rxf8+": 3786,
      "W-Qxc2+": 3787,
      "W-Qxf1+": 3788,
      "W-Qxh1+": 3789,
      "B-e1=R": 3790,
      "B-dxc1": 3791,
      "B-dxc2+": 3792,
      "B-d1=R": 3793,
      "##g4#": 3794,
      "##b5+": 3795,
      "##g6#": 3796,
      "##g3#": 3797,
      "B-a1=R": 3798,
      "W-a8=R": 3799,
      "##g7#": 3800,
      "##e5#": 3801,
      "##e6#": 3802,
      "##g2#": 3803,
      "B-Raf6": 3804,
      "W-Rab2": 3805,
      "W-Raa2": 3806,
      "##c8#": 3807,
      "##f7#": 3808,
      "B-h6#": 3809,
      "##g1#": 3810,
      "##xg4+": 3811,
      "W-g3#": 3812,
      "##a4+": 3813,
      "##xe3+": 3814,
      "B-Bg4#": 3815,
      "W-g4#": 3816,
      "B-fxe1=Q+": 3817,
      "B-bxc1": 3818,
      "B-bxc2+": 3819,
      "B-Bc5#": 3820,
      "W-bxc8=Q+": 3821,
      "W-Qxg2+": 3822,
      "W-Qe2#": 3823,
      "W-Rxg3+": 3824,
      "W-Rxb1+": 3825,
      "W-Bxg8+": 3826,
      "B-Rxh6+": 3827,
      "B-Nd7+": 3828,
      "W-Rff2": 3829,
      "W-Rfxf7": 3830,
      "##=Q#": 3831,
      "W-Rhg3": 3832,
      "W-Rhe3": 3833,
      "W-Rhh3": 3834,
      "W-Rhh7": 3835,
      "W-Rhd1+": 3836,
      "B-Rhe6": 3837,
      "B-Rhc2": 3838,
      "B-Rhh3": 3839,
      "B-Rhh7": 3840,
      "B-Rhf8+": 3841,
      "B-Rhxg8": 3842,
      "W-Rd1#": 3843,
      "W-Nd5#": 3844,
      "B-Rff1": 3845,
      "B-Rfxe8": 3846,
      "B-Rfc8+": 3847,
      "B-Rfh8": 3848,
      "B-h1": 3849,
      "B-hxg2+": 3850,
      "B-Ne7+": 3851,
      "W-Rc1#": 3852,
      "B-Rxa7+": 3853,
      "W-Rxa2+": 3854,
      "B-Ke6+": 3855,
      "B-Nbc4": 3856,
      "B-Nbd3": 3857,
      "B-Nbd4": 3858,
      "B-Nbxc2": 3859,
      "W-Ke3+": 3860,
      "W-Nba3": 3861,
      "W-Rf1#": 3862,
      "B-Rg8#": 3863,
      "W-cxd4+": 3864,
      "W-Nxb8+": 3865,
      "B-Nge3": 3866,
      "B-Ngxe3": 3867,
      "B-Qd8#": 3868,
      "W-gxf3+": 3869,
      "B-Nf4#": 3870,
      "B-Nb6+": 3871,
      "B-fxe6+": 3872,
      "B-Na6+": 3873,
      "W-Qc3#": 3874,
      "B-gxh6+": 3875,
      "W-Nge5": 3876,
      "W-Rdxd5": 3877,
      "W-Rdg3": 3878,
      "W-Rdxe4": 3879,
      "W-Rdg2": 3880,
      "W-Rdc7": 3881,
      "W-Rdg1+": 3882,
      "W-Bd4#": 3883,
      "B-Rdd5": 3884,
      "B-Rdb7": 3885,
      "B-Rde2+": 3886,
      "B-Rdxd2+": 3887,
      "W-Rb7#": 3888,
      "B-Rb2#": 3889,
      "B-Qxc3#": 3890,
      "W-Rec3": 3891,
      "W-Red4": 3892,
      "W-Rexe2": 3893,
      "W-Rea7": 3894,
      "W-Rd3#": 3895,
      "B-Bxe3#": 3896,
      "B-Qe5#": 3897,
      "B-Qe8#": 3898,
      "B-Ree1": 3899,
      "B-Ree6": 3900,
      "B-Rec2": 3901,
      "B-Ref2": 3902,
      "B-Rexe6": 3903,
      "B-Rexe7": 3904,
      "B-Reh8": 3905,
      "B-Red2+": 3906,
      "B-Nfg6": 3907,
      "W-Rxa7#": 3908,
      "B-Rxa2#": 3909,
      "W-Qxd6#": 3910,
      "B-cxd6+": 3911,
      "W-Rc5#": 3912,
      "W-Rbc3": 3913,
      "W-Rbe2": 3914,
      "W-Rbe8": 3915,
      "W-Rce3": 3916,
      "W-Rcxc6": 3917,
      "W-Rcxc3": 3918,
      "W-Rcg7+": 3919,
      "B-Bh3#": 3920,
      "B-Rf5#": 3921,
      "B-Nca6": 3922,
      "B-Rcc3": 3923,
      "B-Rcc4": 3924,
      "B-Rcc5": 3925,
      "B-Rcd6": 3926,
      "B-Rcd5": 3927,
      "B-Rcd4": 3928,
      "B-Rcb2": 3929,
      "B-Rcxc2": 3930,
      "B-Rb4#": 3931,
      "B-Rbb6": 3932,
      "B-Rbg8": 3933,
      "B-Rba3": 3934,
      "W-cxb4+": 3935,
      "B-Bxg2#": 3936,
      "W-Rc6#": 3937,
      "W-Ncxd2": 3938,
      "B-Rd3#": 3939,
      "W-Nfe4": 3940,
      "B-Nde6": 3941,
      "B-Ndxe7": 3942,
      "B-Rxf3#": 3943,
      "W-Qa3#": 3944,
      "B-Qa6#": 3945,
      "B-Nef4": 3946,
      "B-Ned4": 3947,
      "B-Nef3+": 3948,
      "W-Qxh5#": 3949,
      "B-Qab3+": 3950,
      "W-bxa5+": 3951,
      "W-Nef5": 3952,
      "W-Neg3": 3953,
      "W-Nexc4": 3954,
      "W-Nec4+": 3955,
      "B-Nd2#": 3956,
      "B-Nxf5+": 3957,
      "W-exf4+": 3958,
      "W-Bxd3+": 3959,
      "B-Rxg2#": 3960,
      "W-Bf6#": 3961,
      "W-R1c3": 3962,
      "W-R1c4": 3963,
      "W-R1e5": 3964,
      "W-R1b2": 3965,
      "W-R1a3": 3966,
      "W-Rgf7+": 3967,
      "B-R8e2": 3968,
      "B-R8d2": 3969,
      "B-R8d3": 3970,
      "B-R8e3+": 3971,
      "B-R8e2+": 3972,
      "##h8#": 3973,
      "W-Nxe7#": 3974,
      "B-c1=R": 3975,
      "B-cxd3+": 3976,
      "W-Bxa5+": 3977,
      "B-Rxb7+": 3978,
      "B-Rg2#": 3979,
      "B-b1=Q#": 3980,
      "B-f1=R": 3981,
      "B-Nxa4+": 3982,
      "W-bxa6+": 3983,
      "B-Nb7+": 3984,
      "B-bxa3+": 3985,
      "B-Bg3#": 3986,
      "B-Nh1+": 3987,
      "B-Ne2#": 3988,
      "B-Nac7": 3989,
      "B-Nac2": 3990,
      "W-Nhg5": 3991,
      "W-Nh8+": 3992,
      "W-R8e7": 3993,
      "W-R8f7+": 3994,
      "W-R8e7+": 3995,
      "W-R7a6": 3996,
      "W-R7g6+": 3997,
      "B-Bf1#": 3998,
      "W-N1f3": 3999,
      "W-N1e2": 4000,
      "W-Rxg8#": 4001,
      "W-R5f2": 4002,
      "B-R4d5": 4003,
      "B-Qec2": 4004,
      "W-Qfh8#": 4005,
      "B-R6f7": 4006,
      "B-R6a5+": 4007,
      "W-Qca7#": 4008,
      "B-N4f6": 4009,
      "B-N5g6": 4010,
      "W-R3e2": 4011,
      "W-N3e4": 4012,
      "W-axb7+": 4013,
      "B-Qca2#": 4014,
      "W-gxf8=Q": 4015,
      "W-cxb8=Q+": 4016,
      "W-gxh8=Q": 4017,
      "##8=B": 4018,
      "##h1+": 4019,
      "W-Nc1+": 4020,
      "B-Nc8+": 4021,
      "B-Nf8+": 4022,
      "W-Bxf3+": 4023,
      "W-Bf2+": 4024,
      "W-Bb1+": 4025,
      "W-Bxe2+": 4026,
      "W-Ba2+": 4027,
      "B-Ba7+": 4028,
      "W-Rxc1+": 4029,
      "B-Rxh8+": 4030,
      "W-Q5": 4031,
      "W-Qxd1+": 4032,
      "W-Qxd2+": 4033,
      "W-Qxc1+": 4034,
      "B-Q6": 4035,
      "B-Q4": 4036,
      "B-Qxd8+": 4037,
      "W-Kd4+": 4038,
      "W-dxc8=Q": 4039,
      "##b4+": 4040,
      "W-Nf3#": 4041,
      "##xe5+": 4042,
      "##xa6": 4043,
      "##xa2+": 4044,
      "W-hxg8": 4045,
      "W-h8=R": 4046,
      "W-axb8": 4047,
      "W-O-O+": 4048,
      "B-O-O+": 4049,
      "##e4#": 4050,
      "##d8#": 4051,
      "##b2#": 4052,
      "B-Rae7": 4053,
      "B-Rab7": 4054,
      "B-Rab2": 4055,
      "B-Raa3": 4056,
      "B-Raxd7": 4057,
      "B-Raxc2": 4058,
      "B-Rah7": 4059,
      "B-Raxa2": 4060,
      "B-Raxa3": 4061,
      "B-Raxb3+": 4062,
      "W-Rac3": 4063,
      "W-Rae2": 4064,
      "W-Raa8": 4065,
      "W-Rab7+": 4066,
      "W-Raxa5": 4067,
      "B-d6+": 4068,
      "##b1#": 4069,
      "B-cxb1": 4070,
      "W-Bc4#": 4071,
      "##g8#": 4072,
      "W-f4#": 4073,
      "B-b5#": 4074,
      "W-Re1#": 4075,
      "W-Re1e2": 4076,
      "B-Re8#": 4077,
      "B-b6#": 4078,
      "B-fxe1=Q": 4079,
      "W-fxe7+": 4080,
      "W-bxc8=Q": 4081,
      "B-Bg7#": 4082,
      "##a3+": 4083,
      "B-Rxg8+": 4084,
      "B-gxh1": 4085,
      "W-Rfe7": 4086,
      "W-Rfxf3": 4087,
      "W-Rfxf4": 4088,
      "W-Rfxd2": 4089,
      "W-Rfg7+": 4090,
      "W-Kg2+": 4091,
      "W-Rhh5": 4092,
      "W-Rhg7+": 4093,
      "W-Rhxg1": 4094,
      "B-Rhg6": 4095,
      "B-Rhg7": 4096,
      "B-Rhe5": 4097,
      "B-Rhg2": 4098,
      "B-Rhxd8": 4099,
      "B-Rhxe8": 4100,
      "B-Rhe5+": 4101,
      "B-Rff4": 4102,
      "B-Rfg6": 4103,
      "B-Rfe2": 4104,
      "B-Rfe6": 4105,
      "B-Rfb7": 4106,
      "B-Rfe4+": 4107,
      "B-Rfh7": 4108,
      "B-Rfd2+": 4109,
      "B-Rfc2+": 4110,
      "B-Rd8#": 4111,
      "B-hxg1": 4112,
      "B-Kd7+": 4113,
      "B-Bxh5+": 4114,
      "B-Rb8#": 4115,
      "W-Rb1#": 4116,
      "W-Qc2#": 4117,
      "B-Nbc5": 4118,
      "B-Nbc8": 4119,
      "W-Nbd5": 4120,
      "W-Nbd6+": 4121,
      "##xg3+": 4122,
      "W-Qxa2+": 4123,
      "W-bxc3+": 4124,
      "B-dxe5+": 4125,
      "B-cxd5+": 4126,
      "W-Rg1#": 4127,
      "B-Ngf4": 4128,
      "B-Nge4": 4129,
      "W-Nf5#": 4130,
      "B-Nxb1+": 4131,
      "B-Kg5+": 4132,
      "W-Kxb8": 4133,
      "W-Qxe5#": 4134,
      "B-Qd5#": 4135,
      "W-Nge4+": 4136,
      "W-Rdxd4": 4137,
      "W-Rdd6": 4138,
      "W-Rdb2": 4139,
      "W-Rdg7+": 4140,
      "B-Qxe4#": 4141,
      "##xb6+": 4142,
      "B-Rde2": 4143,
      "B-Rdf5": 4144,
      "B-Rdd6": 4145,
      "B-Rde5": 4146,
      "B-Rdxc3": 4147,
      "B-Rdxc4": 4148,
      "B-Rdg2+": 4149,
      "B-Bd4#": 4150,
      "W-Kc4+": 4151,
      "W-Qd4#": 4152,
      "B-Re6xe5": 4153,
      "W-Be5#": 4154,
      "W-Qhe8": 4155,
      "W-Ref3": 4156,
      "W-Red7": 4157,
      "W-Rexe4": 4158,
      "W-Red5": 4159,
      "W-Ref7+": 4160,
      "W-Rxb7#": 4161,
      "B-Be4#": 4162,
      "B-Rec6": 4163,
      "B-Ref4": 4164,
      "B-Red2": 4165,
      "B-Ree5": 4166,
      "B-Red4": 4167,
      "B-Reb2": 4168,
      "B-Rexc8": 4169,
      "B-Rexe2+": 4170,
      "B-Nfe8": 4171,
      "B-Nfxd3": 4172,
      "W-Bd6#": 4173,
      "W-Bxf5#": 4174,
      "W-Qxa7#": 4175,
      "W-Rbd7": 4176,
      "W-Rbc2": 4177,
      "W-Rbb8": 4178,
      "W-Rbxd1": 4179,
      "W-Rba2": 4180,
      "W-Rbf7+": 4181,
      "W-Rbh1": 4182,
      "B-Rxc2#": 4183,
      "W-Ne6#": 4184,
      "W-Rcc4": 4185,
      "W-Rcc5": 4186,
      "W-Rcd3": 4187,
      "W-Rcd4": 4188,
      "W-Rcf2": 4189,
      "W-Rcxc5": 4190,
      "W-Rcxc7": 4191,
      "W-Rcxc7+": 4192,
      "B-Qf7#": 4193,
      "B-Nce3": 4194,
      "B-Ncxb4": 4195,
      "B-Ncd4+": 4196,
      "B-Ra6#": 4197,
      "W-Re5#": 4198,
      "W-Rxf7#": 4199,
      "B-Rcb4": 4200,
      "B-Rce1": 4201,
      "B-Rcg2": 4202,
      "B-Rcc1": 4203,
      "B-Rcg8": 4204,
      "B-Rcxd8": 4205,
      "B-Rcxf7": 4206,
      "B-Rcxd7": 4207,
      "B-Rcxe8": 4208,
      "B-Rcxc1": 4209,
      "B-Rca8": 4210,
      "B-Rcd2+": 4211,
      "W-Nde3": 4212,
      "W-Ndxc4": 4213,
      "W-Qxc5#": 4214,
      "B-Rd4#": 4215,
      "B-Ra4#": 4216,
      "W-Nxc3+": 4217,
      "B-Bd3#": 4218,
      "B-Bxe6+": 4219,
      "B-cxb5+": 4220,
      "B-Rbf6": 4221,
      "B-Rbc6": 4222,
      "B-Rbe6": 4223,
      "B-Rbxf3": 4224,
      "B-Rbxf2": 4225,
      "B-Rbe2+": 4226,
      "B-Rf4#": 4227,
      "B-Rxd3#": 4228,
      "B-dxc5+": 4229,
      "W-fxg3#": 4230,
      "B-Nxc6+": 4231,
      "W-Ncb1": 4232,
      "B-Nc3#": 4233,
      "W-Rd4#": 4234,
      "W-Bf5#": 4235,
      "W-Qxf4#": 4236,
      "W-Nfg6": 4237,
      "W-Nfg3": 4238,
      "W-Nfe3": 4239,
      "W-Nfd6": 4240,
      "W-Nfd6+": 4241,
      "W-Rc4#": 4242,
      "B-Re4#": 4243,
      "B-Rxa4#": 4244,
      "B-Qb8#": 4245,
      "B-Bc3#": 4246,
      "B-Ndf4": 4247,
      "B-Ndb6": 4248,
      "B-Nde2+": 4249,
      "B-Rh6#": 4250,
      "B-Rc3#": 4251,
      "B-Rg5#": 4252,
      "W-Rb6#": 4253,
      "B-Nexd4": 4254,
      "B-Nexc3": 4255,
      "B-Neg8": 4256,
      "B-Qxb4#": 4257,
      "W-Nec5": 4258,
      "W-Ned3": 4259,
      "W-Neg1": 4260,
      "W-Ned6+": 4261,
      "W-Nb6#": 4262,
      "W-Qxb4#": 4263,
      "W-Qxa8#": 4264,
      "B-Re3#": 4265,
      "W-Re6#": 4266,
      "W-Bc7#": 4267,
      "W-Qxh8#": 4268,
      "W-R1f5": 4269,
      "W-R1b6": 4270,
      "W-R1e6": 4271,
      "W-R1xc2": 4272,
      "W-R1a2": 4273,
      "W-R1e5+": 4274,
      "W-R1f7+": 4275,
      "W-R1xb6": 4276,
      "W-R1d6+": 4277,
      "W-Qxb6#": 4278,
      "W-Rgf3": 4279,
      "W-Rgf4": 4280,
      "W-Rgd3": 4281,
      "W-Rge3": 4282,
      "W-Rge4": 4283,
      "W-Rgg2": 4284,
      "W-Rgxe7+": 4285,
      "W-Rgxg7+": 4286,
      "B-R8f3": 4287,
      "B-R8c4": 4288,
      "B-R8c5": 4289,
      "B-R8d5": 4290,
      "B-R8b7": 4291,
      "B-R8f3+": 4292,
      "B-R8c2+": 4293,
      "W-Ng6#": 4294,
      "B-Rxh4#": 4295,
      "W-Rg7#": 4296,
      "W-Bb6#": 4297,
      "W-Be6#": 4298,
      "B-Rgf6": 4299,
      "B-Rgg6": 4300,
      "B-Rge2": 4301,
      "B-Rgg3": 4302,
      "B-Rgh6": 4303,
      "B-Rgf2": 4304,
      "B-Rgg1": 4305,
      "B-Rgxg2+": 4306,
      "B-Nd8+": 4307,
      "B-g2#": 4308,
      "B-Bc2#": 4309,
      "W-bxa3+": 4310,
      "B-Ba3#": 4311,
      "B-Nxb5+": 4312,
      "W-f8=R": 4313,
      "B-Qa7#": 4314,
      "B-g1=R": 4315,
      "W-Nxd3+": 4316,
      "B-Rxh5#": 4317,
      "B-Nhxf4": 4318,
      "W-Rxb3+": 4319,
      "W-Ne7#": 4320,
      "B-Bf2#": 4321,
      "B-Rbd8+": 4322,
      "B-d1=Q#": 4323,
      "B-Qg8#": 4324,
      "B-Bg2#": 4325,
      "B-Nac5": 4326,
      "B-Naxc4": 4327,
      "B-Naxb3": 4328,
      "W-Ndb5+": 4329,
      "W-Nab1": 4330,
      "W-Nxh3+": 4331,
      "W-Nhg2": 4332,
      "W-Nh2+": 4333,
      "W-Qxb8#": 4334,
      "##=R#": 4335,
      "B-Na3#": 4336,
      "B-e1=Q#": 4337,
      "W-Bxa3+": 4338,
      "W-R8d7": 4339,
      "W-R8d6": 4340,
      "W-R8g7+": 4341,
      "W-R8h7": 4342,
      "W-R8h7+": 4343,
      "W-R7e4": 4344,
      "W-R7e6+": 4345,
      "W-R7f6+": 4346,
      "B-Nh3#": 4347,
      "B-R1e2": 4348,
      "B-R1e3": 4349,
      "B-R1d5": 4350,
      "B-R2xc3": 4351,
      "B-N8c6": 4352,
      "W-Qh1#": 4353,
      "W-R5d3": 4354,
      "W-R5e3": 4355,
      "W-R6d2": 4356,
      "W-R6e5": 4357,
      "B-R4c5": 4358,
      "B-R4d6": 4359,
      "B-R4c7": 4360,
      "B-Qec2+": 4361,
      "B-N6e5": 4362,
      "B-R6f5": 4363,
      "W-Qcc7+": 4364,
      "B-N5b6": 4365,
      "W-Qdb7+": 4366,
      "W-R3f2": 4367,
      "W-N3d2": 4368,
      "W-N3d4": 4369,
      "B-R3d5": 4370,
      "B-R3xf4": 4371,
      "B-Qdb1+": 4372,
      "B-Qfd3+": 4373,
      "B-R5f6": 4374,
      "B-R5g6": 4375,
      "B-R5e6": 4376,
      "B-Qca1#": 4377,
      "W-N4f3": 4378,
      "W-N4c3": 4379,
      "W-cxd8=Q": 4380,
      "W-N7d5": 4381,
      "W-gxf8=Q+": 4382,
      "B-Rfd2#": 4383,
      "B-exd1=Q+": 4384,
      "B-cxd1=Q": 4385,
      "B-cxd1=Q+": 4386,
      "W-gxh8=Q+": 4387,
      "W-exd8=Q": 4388,
      "W-fxe8=Q+": 4389,
      "W-fxg8=Q+": 4390,
      "W-axb8=Q": 4391,
      "##6e7": 4392,
      "##xh5": 4393,
      "##xg8+": 4394,
      "##a1+": 4395,
      "##h8+": 4396,
      "W-Nxf2+": 4397,
      "W-Ne1+": 4398,
      "W-Nxe2+": 4399,
      "B-Ng8+": 4400,
      "B-Nb1+": 4401,
      "W-Bxe8+": 4402,
      "W-Bg1+": 4403,
      "B-Bxf7+": 4404,
      "B-Bxd7+": 4405,
      "B-Be8+": 4406,
      "B-Bxe7+": 4407,
      "B-Bxc1+": 4408,
      "B-Bxh1+": 4409,
      "B-Ba2+": 4410,
      "B-B6e7": 4411,
      "W-Q1": 4412,
      "B-Qxf8+": 4413,
      "B-Qxh8+": 4414,
      "B-Kc3+": 4415,
      "W-e8=R": 4416,
      "##f6#": 4417,
      "W-d8=R": 4418,
      "B-dxe1=Q+": 4419,
      "##c3#": 4420,
      "##g5#": 4421,
      "W-Nf3h4": 4422,
      "##f4#": 4423,
      "B-Nf6#": 4424,
      "B-a1": 4425,
      "##b3#": 4426,
      "W-h8=N": 4427,
      "W-a8=N": 4428,
      "W-a8=B": 4429,
      "W-Nc3#": 4430,
      "B-d5#": 4431,
      "##d1#": 4432,
      "##xc3+": 4433,
      "B-Rab5": 4434,
      "B-Rab4": 4435,
      "B-Rab3": 4436,
      "B-Rae1": 4437,
      "B-Rad6": 4438,
      "B-Rae4": 4439,
      "B-Rad4": 4440,
      "B-Raf7": 4441,
      "B-Raxf4": 4442,
      "B-Raa4": 4443,
      "B-Raa6": 4444,
      "B-Raxd2": 4445,
      "B-Raxf8": 4446,
      "B-Rag2+": 4447,
      "B-Rac2+": 4448,
      "B-Rab2+": 4449,
      "B-Rag1#": 4450,
      "W-Rad7": 4451,
      "W-Raf5": 4452,
      "W-Rad2": 4453,
      "W-Rad6": 4454,
      "W-Rae5": 4455,
      "W-Rad8": 4456,
      "W-Rab7": 4457,
      "W-Raf8": 4458,
      "W-Raa4": 4459,
      "W-Raxf6+": 4460,
      "W-Rag7+": 4461,
      "W-Rah7": 4462,
      "W-Raxb7": 4463,
      "W-Rad6+": 4464,
      "W-Raxa4": 4465,
      "B-e6+": 4466,
      "##c7#": 4467,
      "##f8#": 4468,
      "##xc4+": 4469,
      "##c1#": 4470,
      "##b8#": 4471,
      "B-a6#": 4472,
      "##xe6+": 4473,
      "B-Be7#": 4474,
      "##xf4+": 4475,
      "##xb5+": 4476,
      "W-d3+": 4477,
      "##a4#": 4478,
      "B-f5#": 4479,
      "W-Be2#": 4480,
      "B-fxe2+": 4481,
      "B-fxg1": 4482,
      "W-b3#": 4483,
      "W-bxc7+": 4484,
      "B-h5#": 4485,
      "W-Bd2#": 4486,
      "##a6#": 4487,
      "##xd1#": 4488,
      "W-Rxg2+": 4489,
      "W-Bxb8+": 4490,
      "B-gxf6+": 4491,
      "W-Rfc6": 4492,
      "W-Rfg5": 4493,
      "W-Rfd7": 4494,
      "W-Rff5": 4495,
      "W-Rfg3": 4496,
      "W-Rfd6": 4497,
      "W-Rfg2": 4498,
      "W-Rfc7": 4499,
      "W-Rfxe6": 4500,
      "W-Rfxf5": 4501,
      "W-Rfh3": 4502,
      "W-Rfa3": 4503,
      "W-Rfxg3": 4504,
      "W-Rfxf1": 4505,
      "W-Rfa2": 4506,
      "W-Rfa7": 4507,
      "W-Rfh2": 4508,
      "W-Rfxb7": 4509,
      "W-Rfxb1": 4510,
      "W-Rfxf5+": 4511,
      "W-Rhf3": 4512,
      "W-Rhxd5": 4513,
      "W-Rhd7": 4514,
      "W-Rhd2": 4515,
      "W-Rhh6": 4516,
      "W-Rhg7": 4517,
      "W-Rhb7": 4518,
      "W-Rhxf4": 4519,
      "W-Rhxc1": 4520,
      "W-Rhh2": 4521,
      "W-Rhb1+": 4522,
      "W-Rhg5+": 4523,
      "W-Rhxg5+": 4524,
      "B-Rhh5": 4525,
      "B-Rhxg4": 4526,
      "B-Rhxb4": 4527,
      "B-Rhxh3": 4528,
      "B-Rhxf8": 4529,
      "B-Rhxe1": 4530,
      "B-Rhxh2": 4531,
      "B-Rhh1": 4532,
      "B-Rhc2+": 4533,
      "B-Rhg4+": 4534,
      "W-Qd2#": 4535,
      "B-Rfh6": 4536,
      "B-Rfxf3": 4537,
      "B-Rfc2": 4538,
      "B-Rfh3": 4539,
      "B-Rfxe7": 4540,
      "B-Rfxf2+": 4541,
      "B-Rfb8+": 4542,
      "B-Rfxg2": 4543,
      "B-Rfb2+": 4544,
      "B-Rfxh4": 4545,
      "B-Rc8#": 4546,
      "B-Qc7#": 4547,
      "B-Bxb1+": 4548,
      "B-Bxg1+": 4549,
      "W-Bxc6#": 4550,
      "B-Ne5#": 4551,
      "B-Bxc3#": 4552,
      "B-Ng4#": 4553,
      "B-Nbd1": 4554,
      "B-Nbxc6": 4555,
      "B-Nbxc4": 4556,
      "W-Bg2+": 4557,
      "B-Kg6+": 4558,
      "B-Nd5#": 4559,
      "W-Nbc5": 4560,
      "W-Nbd3": 4561,
      "W-Nbc1": 4562,
      "W-Nbxc5": 4563,
      "W-Nbxc8": 4564,
      "W-Nbd4+": 4565,
      "B-Rf8f6": 4566,
      "W-Kd3+": 4567,
      "W-g5#": 4568,
      "##xe1#": 4569,
      "B-f4#": 4570,
      "B-Bf6#": 4571,
      "W-Nxg2+": 4572,
      "W-Nxh4+": 4573,
      "B-Ngh6": 4574,
      "B-Ngf8": 4575,
      "B-Nxg7+": 4576,
      "W-Nh4#": 4577,
      "W-Kc3+": 4578,
      "W-Ng3#": 4579,
      "B-Qe6#": 4580,
      "B-Kd5+": 4581,
      "B-Nh6g4+": 4582,
      "B-Na6#": 4583,
      "W-Kg4+": 4584,
      "B-Qxd4#": 4585,
      "B-Bxe4#": 4586,
      "B-Nxa1+": 4587,
      "B-Rd7d8": 4588,
      "W-Re3#": 4589,
      "W-Re3e2": 4590,
      "W-Nge3": 4591,
      "W-Ngxf3": 4592,
      "W-Ngf7": 4593,
      "W-Ngf2": 4594,
      "W-Ngf7+": 4595,
      "W-Ngf5+": 4596,
      "W-Rdf3": 4597,
      "W-Rdc3": 4598,
      "W-Rdg4": 4599,
      "W-Rdb4": 4600,
      "W-Rdb3": 4601,
      "W-Rdb6": 4602,
      "W-Rde6": 4603,
      "W-Rdd5": 4604,
      "W-Rdd4": 4605,
      "W-Rdxf6": 4606,
      "W-Rdxd6": 4607,
      "W-Rda4": 4608,
      "W-Rdxb4": 4609,
      "W-Rdxe2": 4610,
      "W-Rdxh7": 4611,
      "W-Rdxc1": 4612,
      "W-Rda7": 4613,
      "W-Rde4+": 4614,
      "W-Rdxb2": 4615,
      "W-Re2e3": 4616,
      "W-Re2xe7": 4617,
      "B-Rf7f2+": 4618,
      "B-Re7e1+": 4619,
      "##a8#": 4620,
      "W-e6#": 4621,
      "W-Bxf4#": 4622,
      "B-Rdf6": 4623,
      "B-Rdc6": 4624,
      "B-Rdxd4": 4625,
      "B-Rdg7": 4626,
      "B-Rde1": 4627,
      "B-Rdf2": 4628,
      "B-Rdxd6": 4629,
      "B-Rdxe3": 4630,
      "B-Rdxd3+": 4631,
      "W-dxe4+": 4632,
      "B-Be5#": 4633,
      "B-Bd5#": 4634,
      "B-Qxg5#": 4635,
      "W-Nxd6#": 4636,
      "W-Qhf6": 4637,
      "W-Qhg7+": 4638,
      "W-Qhh6+": 4639,
      "W-Qhd8+": 4640,
      "W-Rec6": 4641,
      "W-Rexe5": 4642,
      "W-Reg3": 4643,
      "W-Reb3": 4644,
      "W-Red6": 4645,
      "W-Ree4": 4646,
      "W-Reb2": 4647,
      "W-Rexe7": 4648,
      "W-Rexf7": 4649,
      "W-Rexd2": 4650,
      "W-Rexe8": 4651,
      "W-Rea2": 4652,
      "W-Reb1+": 4653,
      "W-Rec1+": 4654,
      "W-Reh8": 4655,
      "W-Rexg7": 4656,
      "W-Reb7+": 4657,
      "W-Rd3xd5": 4658,
      "B-Kc4+": 4659,
      "W-Bxc5#": 4660,
      "B-Reg5": 4661,
      "B-Ref5": 4662,
      "B-Reg3": 4663,
      "B-Rexe4": 4664,
      "B-Ree4": 4665,
      "B-Red1": 4666,
      "B-Reb7": 4667,
      "B-Rexc3": 4668,
      "B-Rexe3": 4669,
      "B-Rexe2": 4670,
      "B-Rexb7": 4671,
      "B-Rf6#": 4672,
      "B-Rf6xf3": 4673,
      "B-Rf6xf2": 4674,
      "B-Nfe5": 4675,
      "B-Nfg8": 4676,
      "B-Nfxe3": 4677,
      "B-Nfd3+": 4678,
      "B-Rc7xc4": 4679,
      "B-Qhe4+": 4680,
      "W-Rg3#": 4681,
      "B-Re2e3+": 4682,
      "W-Re7xe5": 4683,
      "W-Kd5+": 4684,
      "B-Qxd7#": 4685,
      "B-hxg4#": 4686,
      "W-Bg4#": 4687,
      "W-Rd5xd7+": 4688,
      "W-Rxd5#": 4689,
      "W-Ng4#": 4690,
      "B-Bxd6+": 4691,
      "W-Qc1#": 4692,
      "W-Nc6#": 4693,
      "W-Rbg5": 4694,
      "W-Rbe7": 4695,
      "W-Rbd2": 4696,
      "W-Rbd3": 4697,
      "W-Rbd4": 4698,
      "W-Rbxc3": 4699,
      "W-Rbxb3": 4700,
      "W-Rba7": 4701,
      "W-Rbg7+": 4702,
      "W-Rbe7+": 4703,
      "W-Rbe1+": 4704,
      "W-Rbg7#": 4705,
      "W-Rbxb6+": 4706,
      "W-Rxd6#": 4707,
      "B-Bf4#": 4708,
      "W-Re4#": 4709,
      "W-g6#": 4710,
      "B-Bc4#": 4711,
      "W-Rcxe4": 4712,
      "W-Rce8": 4713,
      "W-Rcd5": 4714,
      "W-Rch3": 4715,
      "W-Rcxe7": 4716,
      "W-Rcxd1": 4717,
      "W-Rcf7+": 4718,
      "W-Rce7+": 4719,
      "W-Rcxg7": 4720,
      "B-Ncb5": 4721,
      "B-Ncxd5": 4722,
      "B-Ncd3": 4723,
      "B-Ncd6": 4724,
      "B-Ncxe3": 4725,
      "B-Ncxd8": 4726,
      "B-Ncxd7": 4727,
      "B-Nce3+": 4728,
      "B-Ra7#": 4729,
      "W-Re5e2": 4730,
      "W-Rxc7#": 4731,
      "B-Rcf6": 4732,
      "B-Rcc6": 4733,
      "B-Rcd2": 4734,
      "B-Rcb6": 4735,
      "B-Rce6": 4736,
      "B-Rcd1": 4737,
      "B-Rcxc3": 4738,
      "B-Rcf2": 4739,
      "B-Rcxf2": 4740,
      "B-Rcxc7": 4741,
      "B-Rcxc2+": 4742,
      "B-Rch8": 4743,
      "B-Rxc3#": 4744,
      "W-Nxg6#": 4745,
      "W-Nxc5#": 4746,
      "B-Bxb5#": 4747,
      "W-Ndc6": 4748,
      "W-Ndb4": 4749,
      "W-Ndf4": 4750,
      "W-Ndb3": 4751,
      "W-Ndxc6": 4752,
      "W-Ndxf5": 4753,
      "W-Ndxf4": 4754,
      "W-Ndc7+": 4755,
      "B-Rd4xd1+": 4756,
      "B-Qxd3#": 4757,
      "W-Qxf5#": 4758,
      "B-fxg6+": 4759,
      "W-Ra5#": 4760,
      "W-Rb5#": 4761,
      "W-Bxa6#": 4762,
      "B-Rbd7": 4763,
      "B-Rbe2": 4764,
      "B-Rbd4": 4765,
      "B-Rbc7": 4766,
      "B-Rbc2": 4767,
      "B-Rbb1": 4768,
      "B-Rbxf4": 4769,
      "B-Rbxd6": 4770,
      "B-Rbxb4": 4771,
      "B-Rbxd8": 4772,
      "B-Rbxd7": 4773,
      "B-Rbxb7": 4774,
      "B-Rbc2+": 4775,
      "B-Rbxa3": 4776,
      "B-Rbxa4": 4777,
      "B-Rbg2#": 4778,
      "W-Rxa6#": 4779,
      "W-cxd3+": 4780,
      "W-Rf5#": 4781,
      "W-Ra2#": 4782,
      "B-Qxe3#": 4783,
      "B-Rxe3#": 4784,
      "W-Ra3#": 4785,
      "B-Nxg3#": 4786,
      "B-Rc5#": 4787,
      "W-Ncb6": 4788,
      "W-Ncb2": 4789,
      "W-Ncxd6": 4790,
      "W-Nca5": 4791,
      "W-Nce5+": 4792,
      "W-Nce7+": 4793,
      "W-Ncd4+": 4794,
      "W-Ncxd6+": 4795,
      "W-Nfxe4": 4796,
      "W-Nfxe6": 4797,
      "W-Nfg1": 4798,
      "W-Nc2#": 4799,
      "B-Rg4#": 4800,
      "W-c7#": 4801,
      "W-Rg2xg3": 4802,
      "W-Rg2xg5+": 4803,
      "W-Bxb4#": 4804,
      "W-Rxe7#": 4805,
      "W-Rxa5#": 4806,
      "W-Qae8": 4807,
      "W-Qad5": 4808,
      "W-Qaa4+": 4809,
      "W-Qaa6#": 4810,
      "B-Ndc4": 4811,
      "B-Ndf5": 4812,
      "B-Nde3": 4813,
      "B-Ndxc4": 4814,
      "B-Ndc3+": 4815,
      "W-Qxa6#": 4816,
      "W-Ra4#": 4817,
      "W-Rh8xh7": 4818,
      "W-gxh3+": 4819,
      "B-Qf8#": 4820,
      "B-Nxc2#": 4821,
      "B-Ned3": 4822,
      "B-Ned6": 4823,
      "B-Nexc6": 4824,
      "B-Nexf2": 4825,
      "B-Nef4+": 4826,
      "B-Nef5+": 4827,
      "B-Qah1#": 4828,
      "W-Neg4": 4829,
      "W-Nexd5": 4830,
      "W-Ned7": 4831,
      "W-Ned6": 4832,
      "W-Nexf7": 4833,
      "W-Nexd2": 4834,
      "W-Nexf8": 4835,
      "W-Nef6+": 4836,
      "W-Nec6+": 4837,
      "W-Ned7+": 4838,
      "B-Qc3#": 4839,
      "B-Qxh4#": 4840,
      "W-Bd1#": 4841,
      "W-Rh2h1": 4842,
      "B-Nb3#": 4843,
      "B-Rd1d2+": 4844,
      "W-Qf1#": 4845,
      "W-Qb1#": 4846,
      "W-Nb4#": 4847,
      "W-Rh7h5": 4848,
      "B-Rf2f3": 4849,
      "B-Qxb3#": 4850,
      "W-Nxb7#": 4851,
      "B-Rxe2#": 4852,
      "W-Rxg5#": 4853,
      "B-Qxa4#": 4854,
      "W-R1g4": 4855,
      "W-R1b5": 4856,
      "W-R1xd5": 4857,
      "W-R1d7": 4858,
      "W-R1xe5": 4859,
      "W-R1h6": 4860,
      "W-R1e4": 4861,
      "W-R1d5": 4862,
      "W-R1h4": 4863,
      "W-R1g2": 4864,
      "W-R1f6+": 4865,
      "W-R1xb2": 4866,
      "W-R1h7+": 4867,
      "W-R1c7+": 4868,
      "W-R1a7+": 4869,
      "W-R1e7#": 4870,
      "W-R1d7#": 4871,
      "W-Rgg5": 4872,
      "W-Rgb6": 4873,
      "W-Rgd6": 4874,
      "W-Rgh4": 4875,
      "W-Rgg8": 4876,
      "W-Rgxg5": 4877,
      "W-Rgxh7": 4878,
      "W-Rga1": 4879,
      "W-Rgf8+": 4880,
      "W-Rgxg7": 4881,
      "B-R8f4": 4882,
      "B-R8xe5": 4883,
      "B-R8f5": 4884,
      "B-R8h6": 4885,
      "B-R8b6": 4886,
      "B-R8e3": 4887,
      "B-R8d6": 4888,
      "B-R8e4": 4889,
      "B-R8xc6": 4890,
      "B-R8c2": 4891,
      "B-R8xd7": 4892,
      "B-R8a7": 4893,
      "B-R8g2+": 4894,
      "B-R8f2+": 4895,
      "B-R8h3+": 4896,
      "B-R8e2#": 4897,
      "B-R8h2#": 4898,
      "B-R8e3#": 4899,
      "B-Be2#": 4900,
      "W-Kd7+": 4901,
      "W-Nxf6#": 4902,
      "B-Rgf5": 4903,
      "B-Rgd6": 4904,
      "B-Rgb2": 4905,
      "B-Rge2+": 4906,
      "B-Rge8+": 4907,
      "B-Rgh7": 4908,
      "B-Rgh2#": 4909,
      "B-Rgxf5+": 4910,
      "B-Rgxg4+": 4911,
      "B-c1=B": 4912,
      "W-b8=R": 4913,
      "B-Rhd8+": 4914,
      "B-Bb3#": 4915,
      "W-g8=R": 4916,
      "W-cxb3+": 4917,
      "W-bxa4+": 4918,
      "B-Qxh1#": 4919,
      "B-bxa5+": 4920,
      "B-Red8+": 4921,
      "W-Rxh4#": 4922,
      "B-Qa8#": 4923,
      "B-Rxa6+": 4924,
      "W-Bxb2+": 4925,
      "W-Nxa4+": 4926,
      "##xg7#": 4927,
      "W-Bg7#": 4928,
      "B-Nhg5": 4929,
      "B-Nhg4": 4930,
      "B-Nhxf6": 4931,
      "B-Nhg8": 4932,
      "W-Qg1#": 4933,
      "W-Qh2#": 4934,
      "W-Bd8#": 4935,
      "W-Rxb8#": 4936,
      "B-f1=Q#": 4937,
      "B-Bxa6+": 4938,
      "B-Nxg6+": 4939,
      "B-Rxh1#": 4940,
      "B-Nab5": 4941,
      "B-Nab6": 4942,
      "B-Nab8": 4943,
      "B-Naxb4": 4944,
      "B-Naxc7": 4945,
      "W-Nab3": 4946,
      "W-Naxb5": 4947,
      "W-Nhf1": 4948,
      "W-Nhxf5": 4949,
      "W-Nhxf4": 4950,
      "W-Nhg6+": 4951,
      "W-Nhf7+": 4952,
      "B-N7c5": 4953,
      "B-N7xf6": 4954,
      "W-Bxh3+": 4955,
      "W-R8g2": 4956,
      "W-R8c7": 4957,
      "W-R8e5+": 4958,
      "W-R8d7+": 4959,
      "W-R8c7+": 4960,
      "W-R7xe5": 4961,
      "W-R7b6": 4962,
      "W-R7xa5": 4963,
      "W-N1c2": 4964,
      "B-R1f2": 4965,
      "B-R1xe3": 4966,
      "B-R1a2": 4967,
      "B-R1g2+": 4968,
      "B-R1h2": 4969,
      "B-R2c4": 4970,
      "B-R2g6": 4971,
      "B-R2d4": 4972,
      "B-R2a7": 4973,
      "B-R2g3+": 4974,
      "B-R2f3+": 4975,
      "B-R2d3+": 4976,
      "B-N8h6": 4977,
      "B-N8d6": 4978,
      "B-N8h7": 4979,
      "B-Qxb1#": 4980,
      "W-R5g4": 4981,
      "W-R5e2": 4982,
      "W-R5g3": 4983,
      "W-R5e4": 4984,
      "W-R5g6#": 4985,
      "W-R6xd5": 4986,
      "W-R6xe5": 4987,
      "W-R6f5": 4988,
      "W-R6c2": 4989,
      "W-R6f2": 4990,
      "B-R4e7": 4991,
      "B-R4g6": 4992,
      "B-R4e6": 4993,
      "B-R4g3#": 4994,
      "B-Qec1+": 4995,
      "B-Qee5#": 4996,
      "W-Ng7#": 4997,
      "W-Qeg2+": 4998,
      "W-Qec7+": 4999,
      "W-Qed5+": 5000,
      "W-Qee1#": 5001,
      "W-Qff2+": 5002,
      "W-Qfd7+": 5003,
      "W-Qfc4+": 5004,
      "W-Qfd8+": 5005,
      "W-Qff8#": 5006,
      "B-N6e4": 5007,
      "B-R6g7": 5008,
      "B-R6c7": 5009,
      "B-R6a7": 5010,
      "B-R6h7": 5011,
      "B-R6d2+": 5012,
      "W-Qce7+": 5013,
      "W-Qcc4+": 5014,
      "W-Qcc5+": 5015,
      "W-Qcc8#": 5016,
      "B-N4e5": 5017,
      "B-N4a5": 5018,
      "W-Qdb8+": 5019,
      "W-Qdd7+": 5020,
      "W-Qdb3+": 5021,
      "W-Qda5#": 5022,
      "W-Qdg4#": 5023,
      "W-Qdd8#": 5024,
      "W-R3g2": 5025,
      "W-R3b2": 5026,
      "W-R3xd2": 5027,
      "W-N5f3": 5028,
      "W-N5a3": 5029,
      "W-N3d5+": 5030,
      "B-Bh2#": 5031,
      "W-R4g3": 5032,
      "W-R4g2": 5033,
      "W-R4f2": 5034,
      "B-R3e4": 5035,
      "B-R3b7": 5036,
      "B-R3a5": 5037,
      "B-Qxh7#": 5038,
      "B-Qdb2+": 5039,
      "B-Qff2+": 5040,
      "B-Qfd1+": 5041,
      "B-Nhf4+": 5042,
      "B-R5e7": 5043,
      "B-R5d7": 5044,
      "B-Qcc2+": 5045,
      "B-Qca3+": 5046,
      "W-Qbe5+": 5047,
      "W-Qgg7+": 5048,
      "W-Qgxa2+": 5049,
      "B-Qgg4": 5050,
      "B-Qgg3+": 5051,
      "B-Qbc7#": 5052,
      "W-N4g3": 5053,
      "B-R7d6": 5054,
      "B-R7e2#": 5055,
      "B-R7d6#": 5056,
      "W-dxe8=Q": 5057,
      "W-dxe8=Q#": 5058,
      "##xa5+": 5059,
      "B-N2c4": 5060,
      "W-c8=R+": 5061,
      "W-N6xf5": 5062,
      "B-N3xe5": 5063,
      "B-exd1=Q": 5064,
      "B-exd1=R+": 5065,
      "W-cxb8=Q": 5066,
      "W-Ngxe6+": 5067,
      "W-Q8c5+": 5068,
      "W-exd8=Q+": 5069,
      "W-fxe8=Q#": 5070,
      "W-fxg8=Q": 5071,
      "B-e1=R#": 5072,
      "B-dxc1=Q": 5073,
      "B-dxc1=Q+": 5074,
      "B-d1=R+": 5075,
      "B-bxc1=Q": 5076,
      "B-bxc1=Q+": 5077,
      "B-h1=N": 5078,
      "B-h1=B": 5079,
      "W-Rcxc6+": 5080,
      "B-R8d2#": 5081,
      "W-hxg8=Q": 5082,
      "W-h8=R+": 5083,
      "B-cxb1=Q+": 5084,
      "B-gxh1=Q+": 5085,
      "B-hxg1=Q+": 5086,
      "W-e8=R#": 5087,
      "B-Rhxh3+": 5088,
      "##8=B+": 5089,
      "##1=N": 5090,
      "##1=B+": 5091,
      "##2c4+": 5092,
      "##2h2#": 5093,
      "##6e7+": 5094,
      "##xh6+": 5095,
      "##xh4+": 5096,
      "##ad4": 5097,
      "##a8+": 5098,
      "##hf6+": 5099,
      "##7d3+": 5100,
      "##7c7+": 5101,
      "##5d2+": 5102,
      "##de3": 5103,
      "##3c4+": 5104,
      "W-Nxf3+": 5105,
      "W-Nxd1+": 5106,
      "W-Nd1+": 5107,
      "W-Nxe1+": 5108,
      "B-Nxf7+": 5109,
      "B-Nxd7+": 5110,
      "B-Nxh7+": 5111,
      "B-Nxc7+": 5112,
      "W-Bxf2+": 5113,
      "W-Bc8+": 5114,
      "W-Bxc2+": 5115,
      "W-Bxc1+": 5116,
      "W-Bxh8+": 5117,
      "W-Bhf6+": 5118,
      "B-Bxd8+": 5119,
      "B-Bg8+": 5120,
      "B-Bb1+": 5121,
      "B-Bxf1+": 5122,
      "B-Bxc8+": 5123,
      "B-Bad4": 5124,
      "B-Bde3": 5125,
      "W-Rxh1+": 5126,
      "W-Q2h2#": 5127,
      "W-Q6e7+": 5128,
      "W-Q7c7+": 5129,
      "B-Q2c4+": 5130,
      "B-Q7d3+": 5131,
      "B-Q5d2+": 5132,
      "B-Q3c4+": 5133,
      "B-Kxf7+": 5134,
      "B-Kg3+": 5135,
      "B-Ke3+": 5136,
      "B-Kd4+": 5137,
      "B-Kxd1+": 5138,
      "B-Kd3+": 5139,
      "B-Kd1+": 5140,
      "W-Kxe8": 5141,
      "W-Kf6+": 5142,
      "W-Kf7+": 5143,
      "W-Kh6+": 5144,
      "W-Ke7+": 5145,
      "W-Ke8+": 5146,
      "W-Kb6+": 5147,
      "W-Ka7+": 5148,
      "W-e8=N": 5149,
      "##f3#": 5150,
      "B-exf1": 5151,
      "B-exf6+": 5152,
      "B-e1=N": 5153,
      "W-dxe7+": 5154,
      "W-d8=B+": 5155,
      "B-dxe2+": 5156,
      "B-d1=B+": 5157,
      "##c6#": 5158,
      "##xd5+": 5159,
      "##xa8": 5160,
      "##xa1": 5161,
      "##h6#": 5162,
      "##b6#": 5163,
      "W-h8=B": 5164,
      "##xe4+": 5165,
      "##d3#": 5166,
      "B-e5#": 5167,
      "##d5#": 5168,
      "##h4#": 5169,
      "##b7#": 5170,
      "##xc6+": 5171,
      "B-Rac6": 5172,
      "B-Rac3": 5173,
      "B-Rac4": 5174,
      "B-Raxd5": 5175,
      "B-Rad7": 5176,
      "B-Rae2": 5177,
      "B-Rad2": 5178,
      "B-Rae3": 5179,
      "B-Rae5": 5180,
      "B-Rah4": 5181,
      "B-Raxc6": 5182,
      "B-Raxf3": 5183,
      "B-Rac7": 5184,
      "B-Rac2": 5185,
      "B-Raf2": 5186,
      "B-Rag1": 5187,
      "B-Raxd3": 5188,
      "B-Raxb4": 5189,
      "B-Raxe7": 5190,
      "B-Raf3+": 5191,
      "B-Rad4+": 5192,
      "B-Raf2+": 5193,
      "B-Raa1": 5194,
      "B-Rag8+": 5195,
      "B-Rag1+": 5196,
      "B-Raf8+": 5197,
      "B-Raxb2": 5198,
      "B-Raf4+": 5199,
      "B-Raxa7": 5200,
      "B-Rab3+": 5201,
      "B-Raxa5": 5202,
      "B-Rad5+": 5203,
      "B-Raxa4": 5204,
      "B-Rag2#": 5205,
      "B-Raxa2+": 5206,
      "B-c5#": 5207,
      "W-Rag5": 5208,
      "W-Rab4": 5209,
      "W-Raxd4": 5210,
      "W-Rag3": 5211,
      "W-Rad3": 5212,
      "W-Rah5": 5213,
      "W-Rae3": 5214,
      "W-Rae4": 5215,
      "W-Rad5": 5216,
      "W-Rah4": 5217,
      "W-Rag2": 5218,
      "W-Rac7": 5219,
      "W-Rac2": 5220,
      "W-Raxb4": 5221,
      "W-Rah3": 5222,
      "W-Raxf2": 5223,
      "W-Raxf8": 5224,
      "W-Raxf1": 5225,
      "W-Raxf7+": 5226,
      "W-Raf7+": 5227,
      "W-Rah2": 5228,
      "W-Rae8+": 5229,
      "W-Rab8+": 5230,
      "W-Rac8+": 5231,
      "W-Raf1+": 5232,
      "W-Rab6+": 5233,
      "W-Rah8": 5234,
      "W-Rac7+": 5235,
      "W-Rag7#": 5236,
      "W-Rad8#": 5237,
      "W-Raxb5+": 5238,
      "W-Raxg7#": 5239,
      "##c2#": 5240,
      "B-c6#": 5241,
      "W-a3#": 5242,
      "W-Re1e3": 5243,
      "##xg4#": 5244,
      "W-Bb5#": 5245,
      "W-b4#": 5246,
      "W-e3+": 5247,
      "B-f6#": 5248,
      "##h3#": 5249,
      "B-a5#": 5250,
      "W-a4#": 5251,
      "B-Bd6#": 5252,
      "W-Bf4#": 5253,
      "W-f3#": 5254,
      "W-h4#": 5255,
      "B-Bb4#": 5256,
      "W-Qxg1+": 5257,
      "B-Be6#": 5258,
      "B-Qxg8+": 5259,
      "B-Qxb8+": 5260,
      "B-Ke7+": 5261,
      "W-Bxg2+": 5262,
      "W-Bxb1+": 5263,
      "W-Bxh4+": 5264,
      "B-Kg7+": 5265,
      "B-Kf7+": 5266,
      "B-Nd7b6": 5267,
      "W-Kf2+": 5268,
      "W-Rff6": 5269,
      "W-Rfc3": 5270,
      "W-Rfg4": 5271,
      "W-Rff4": 5272,
      "W-Rfxe5": 5273,
      "W-Rfb3": 5274,
      "W-Rfxe4": 5275,
      "W-Rfe5": 5276,
      "W-Rfe4": 5277,
      "W-Rfxf6": 5278,
      "W-Rfxc3": 5279,
      "W-Rfb2": 5280,
      "W-Rfc2": 5281,
      "W-Rfxc4": 5282,
      "W-Rfxd6": 5283,
      "W-Rfxd3": 5284,
      "W-Rfxe3": 5285,
      "W-Rfxd7": 5286,
      "W-Rfxe2": 5287,
      "W-Rfxf8": 5288,
      "W-Rfxf6+": 5289,
      "W-Rfe7+": 5290,
      "W-Rfxb6": 5291,
      "W-Rfxe7+": 5292,
      "W-Rfb1+": 5293,
      "W-Rfb6+": 5294,
      "W-Rfxc7+": 5295,
      "W-Rfxf8+": 5296,
      "W-Rfh8": 5297,
      "W-Rfd7+": 5298,
      "W-Rfxd6+": 5299,
      "W-Rfe7#": 5300,
      "W-Rfxg4+": 5301,
      "W-Nd2f3": 5302,
      "W-Rhg5": 5303,
      "W-Rhe7": 5304,
      "W-Rhe2": 5305,
      "W-Rhf5": 5306,
      "W-Rhb6": 5307,
      "W-Rhd8": 5308,
      "W-Rhxc3": 5309,
      "W-Rhc7": 5310,
      "W-Rhf7": 5311,
      "W-Rhxg4": 5312,
      "W-Rhxd8": 5313,
      "W-Rhxe7": 5314,
      "W-Rhxd1": 5315,
      "W-Rhxe2": 5316,
      "W-Rhg6+": 5317,
      "W-Rhg3+": 5318,
      "W-Rhf7+": 5319,
      "W-Rhe7+": 5320,
      "W-Rhxd8+": 5321,
      "W-Rhg8+": 5322,
      "W-Rhh7+": 5323,
      "W-Rhxb7": 5324,
      "W-Rhd6+": 5325,
      "W-Rhb7+": 5326,
      "W-Rhxh4": 5327,
      "W-Rhxh6": 5328,
      "W-Rhf7#": 5329,
      "W-Rhxg8+": 5330,
      "W-Rhxh6+": 5331,
      "B-Rhf3": 5332,
      "B-Rhf6": 5333,
      "B-Rhg4": 5334,
      "B-Rhxd4": 5335,
      "B-Rhe7": 5336,
      "B-Rhd7": 5337,
      "B-Rhxe5": 5338,
      "B-Rhh6": 5339,
      "B-Rhd3": 5340,
      "B-Rhe3": 5341,
      "B-Rhe4": 5342,
      "B-Rhd4": 5343,
      "B-Rhh4": 5344,
      "B-Rhc7": 5345,
      "B-Rhc1": 5346,
      "B-Rhf1": 5347,
      "B-Rhf2": 5348,
      "B-Rhxe6": 5349,
      "B-Rhg1": 5350,
      "B-Rhxb5": 5351,
      "B-Rha4": 5352,
      "B-Rhxf2": 5353,
      "B-Rhxc8": 5354,
      "B-Rhg3+": 5355,
      "B-Rhe3+": 5356,
      "B-Rhxf2+": 5357,
      "B-Rhf3+": 5358,
      "B-Rhxe8+": 5359,
      "B-Rhb1+": 5360,
      "B-Rhc8+": 5361,
      "B-Rhb6+": 5362,
      "B-Rhxg7": 5363,
      "B-Rhf4+": 5364,
      "B-Rhxh4": 5365,
      "B-Rhxg3+": 5366,
      "B-Rhxh5": 5367,
      "B-Rhxf4+": 5368,
      "B-Rhxd1#": 5369,
      "B-Rhxh4+": 5370,
      "W-d5#": 5371,
      "B-Kf8+": 5372,
      "W-Rd1d7+": 5373,
      "B-Rff3": 5374,
      "B-Rfc6": 5375,
      "B-Rfc3": 5376,
      "B-Rfg5": 5377,
      "B-Rfb5": 5378,
      "B-Rfb4": 5379,
      "B-Rfxd4": 5380,
      "B-Rfxe5": 5381,
      "B-Rfg3": 5382,
      "B-Rfb3": 5383,
      "B-Rfb6": 5384,
      "B-Rfxe4": 5385,
      "B-Rfh5": 5386,
      "B-Rfe5": 5387,
      "B-Rfe4": 5388,
      "B-Rfg2": 5389,
      "B-Rfxe6": 5390,
      "B-Rfxd6": 5391,
      "B-Rfxd3": 5392,
      "B-Rfxb4": 5393,
      "B-Rfxf7": 5394,
      "B-Rfa2": 5395,
      "B-Rfa7": 5396,
      "B-Rfe3+": 5397,
      "B-Rfxh8": 5398,
      "B-Rfg2+": 5399,
      "B-Rfh2": 5400,
      "B-Rfxd2+": 5401,
      "B-Rfxe1+": 5402,
      "B-Rfxc2+": 5403,
      "B-Rfxh2+": 5404,
      "B-Rfh2+": 5405,
      "B-Rfxg7+": 5406,
      "B-Rfxb8": 5407,
      "B-Rfb2#": 5408,
      "B-Rd8xd2": 5409,
      "B-Ne4#": 5410,
      "B-Rc8xc7": 5411,
      "B-Nd4#": 5412,
      "B-Ne7xg6": 5413,
      "B-Bxh6+": 5414,
      "B-Bxb6+": 5415,
      "##xe2#": 5416,
      "W-Rc1c6": 5417,
      "W-Kd2+": 5418,
      "B-Rb8b6": 5419,
      "B-Rxa8+": 5420,
      "##xh3#": 5421,
      "W-Ne4#": 5422,
      "B-Ne5c6": 5423,
      "B-Kf6+": 5424,
      "B-Ng4e5": 5425,
      "B-Nbd6": 5426,
      "B-Nbxc3": 5427,
      "B-Nbc7": 5428,
      "B-Nbc2": 5429,
      "B-Nbxc5": 5430,
      "B-Nba4": 5431,
      "B-Nbxd3": 5432,
      "B-Nbd4+": 5433,
      "B-Nbd3+": 5434,
      "B-Nbxd3+": 5435,
      "B-Nbxa1": 5436,
      "W-Bb2#": 5437,
      "W-Bg2#": 5438,
      "W-Bb3#": 5439,
      "B-Kg6#": 5440,
      "W-Kg3#": 5441,
      "W-Nbc6": 5442,
      "W-Nbc7": 5443,
      "W-Nbc2": 5444,
      "W-Nbxd6": 5445,
      "W-Nbxd8": 5446,
      "W-Nba2": 5447,
      "W-Nba7": 5448,
      "B-e4#": 5449,
      "B-bxc6+": 5450,
      "##xg3#": 5451,
      "W-Rf1f2": 5452,
      "B-b4#": 5453,
      "W-Nd4#": 5454,
      "B-Kd6+": 5455,
      "B-Nbd7#": 5456,
      "W-c5#": 5457,
      "B-Kd8+": 5458,
      "##xf1#": 5459,
      "B-a4#": 5460,
      "W-b5#": 5461,
      "W-Bxa1+": 5462,
      "W-Rg1g2": 5463,
      "B-Nc5#": 5464,
      "B-Nf5#": 5465,
      "W-Kc2+": 5466,
      "W-Nc4#": 5467,
      "W-Ke1+": 5468,
      "B-Kc6+": 5469,
      "B-Kf5+": 5470,
      "B-Ngxe4": 5471,
      "B-Ngh5": 5472,
      "B-Ngxf3": 5473,
      "B-Ngxf4": 5474,
      "B-Ngxf2": 5475,
      "B-Ngf6+": 5476,
      "B-Nge2+": 5477,
      "B-Nge4+": 5478,
      "B-Ngh7": 5479,
      "B-Ngh3+": 5480,
      "B-Ngf4+": 5481,
      "B-Ngxh6": 5482,
      "B-Nh5#": 5483,
      "B-Kxb6+": 5484,
      "B-Nxh6+": 5485,
      "B-Nb6#": 5486,
      "B-Bxd4#": 5487,
      "B-Bg6#": 5488,
      "W-Rd7xd8": 5489,
      "W-Ke4+": 5490,
      "W-Bxe5#": 5491,
      "W-Nd6xc4": 5492,
      "B-Nxa8+": 5493,
      "B-Qc6#": 5494,
      "W-Rd2xd5": 5495,
      "W-Rd2d3": 5496,
      "W-Rd2xd6": 5497,
      "W-Rd2xd7": 5498,
      "B-Nxc3#": 5499,
      "B-Rd7xd5": 5500,
      "B-Rd7d2": 5501,
      "B-Rd7d1": 5502,
      "B-Rd7xd1": 5503,
      "B-Rd7xd2+": 5504,
      "W-Re3e7": 5505,
      "W-Re3xe4": 5506,
      "W-Re3e5": 5507,
      "W-Nge7": 5508,
      "W-Ngf4": 5509,
      "W-Ngh5": 5510,
      "W-Nge1": 5511,
      "W-Nge6": 5512,
      "W-Ngh4": 5513,
      "W-Ngf1": 5514,
      "W-Ngxf5": 5515,
      "W-Ngxe7": 5516,
      "W-Ngxh7": 5517,
      "W-Nge6+": 5518,
      "W-Ngxh2": 5519,
      "W-Ngf6+": 5520,
      "W-Nge7+": 5521,
      "W-Ngh7": 5522,
      "W-Ngf8+": 5523,
      "W-Ngf7#": 5524,
      "W-Ngh6#": 5525,
      "W-Rdc6": 5526,
      "W-Rdg5": 5527,
      "W-Rdc4": 5528,
      "W-Rdf4": 5529,
      "W-Rdg6": 5530,
      "W-Rdxe5": 5531,
      "W-Rdh4": 5532,
      "W-Rdxf3": 5533,
      "W-Rdxc4": 5534,
      "W-Rdxc5": 5535,
      "W-Rdxe6": 5536,
      "W-Rdxf4": 5537,
      "W-Rdxe3": 5538,
      "W-Rda3": 5539,
      "W-Rdxd2": 5540,
      "W-Rdxc2": 5541,
      "W-Rdxf1": 5542,
      "W-Rdxc8": 5543,
      "W-Rdg3+": 5544,
      "W-Rdh2": 5545,
      "W-Rde8+": 5546,
      "W-Rdc6+": 5547,
      "W-Rdc3+": 5548,
      "W-Rdxe8+": 5549,
      "W-Rdg8+": 5550,
      "W-Rdf8+": 5551,
      "W-Rdf1+": 5552,
      "W-Rdxc7+": 5553,
      "W-Rdxg2": 5554,
      "W-Rdc7+": 5555,
      "W-Rdc5+": 5556,
      "W-Rdxg1": 5557,
      "W-Rdxd6+": 5558,
      "W-Rdf7#": 5559,
      "W-Rdxe6+": 5560,
      "W-Re2e7": 5561,
      "W-Re2e5": 5562,
      "W-Rc7c8+": 5563,
      "B-Rf7#": 5564,
      "B-Rf7xf1": 5565,
      "B-Kc8+": 5566,
      "W-Bc3#": 5567,
      "B-Rc2#": 5568,
      "B-Qb4a3": 5569,
      "##h7#": 5570,
      "B-Re7e4": 5571,
      "W-bxa7+": 5572,
      "W-bxa8=Q+": 5573,
      "W-Bxe7#": 5574,
      "W-hxg4#": 5575,
      "W-Nxe6#": 5576,
      "W-d6#": 5577,
      "B-hxg5#": 5578,
      "B-bxa1=Q+": 5579,
      "W-Ne3#": 5580,
      "W-Rf2f3": 5581,
      "W-Rf2f7": 5582,
      "W-Rf3f4": 5583,
      "B-Rdf3": 5584,
      "B-Rdc3": 5585,
      "B-Rdc4": 5586,
      "B-Rdc5": 5587,
      "B-Rdb4": 5588,
      "B-Rdxd5": 5589,
      "B-Rdf4": 5590,
      "B-Rdxe5": 5591,
      "B-Rdh6": 5592,
      "B-Rdb6": 5593,
      "B-Rde4": 5594,
      "B-Rdh4": 5595,
      "B-Rdxc6": 5596,
      "B-Rdxe6": 5597,
      "B-Rdxf4": 5598,
      "B-Rdg1": 5599,
      "B-Rdh3": 5600,
      "B-Rdxd7": 5601,
      "B-Rdxf2": 5602,
      "B-Rdxb3": 5603,
      "B-Rdxe8": 5604,
      "B-Rde7+": 5605,
      "B-Rdh2": 5606,
      "B-Rdh7": 5607,
      "B-Rdxb2": 5608,
      "B-Rdxb8": 5609,
      "B-Rdc2+": 5610,
      "B-Rdxa7": 5611,
      "B-Rdb2+": 5612,
      "B-Rdxa3": 5613,
      "B-Rdg2#": 5614,
      "B-Rda1+": 5615,
      "B-Rdxe1#": 5616,
      "B-Rdxa5+": 5617,
      "W-Rb7b8+": 5618,
      "W-Be4#": 5619,
      "W-Bxf3#": 5620,
      "B-Bg5#": 5621,
      "W-Rxe5#": 5622,
      "W-Bxd6#": 5623,
      "B-Rae8#": 5624,
      "B-Bxc6#": 5625,
      "B-Re6e2": 5626,
      "B-Re6xe1+": 5627,
      "B-Re6xe2+": 5628,
      "B-Re6xe3+": 5629,
      "B-Nxd3#": 5630,
      "B-h3#": 5631,
      "W-Qhg5": 5632,
      "W-Qhxc6": 5633,
      "W-Qhb2": 5634,
      "W-Qhxh7": 5635,
      "W-Qhf6+": 5636,
      "W-Qhe7+": 5637,
      "W-Qhe4+": 5638,
      "W-Qhf1+": 5639,
      "W-Qhh2#": 5640,
      "W-Qhh1#": 5641,
      "W-Qhxh6": 5642,
      "W-Qhh4#": 5643,
      "W-Rd6d8+": 5644,
      "B-e3#": 5645,
      "W-Reg4": 5646,
      "W-Reb5": 5647,
      "W-Rec4": 5648,
      "W-Rexd4": 5649,
      "W-Rexd5": 5650,
      "W-Reb6": 5651,
      "W-Red8": 5652,
      "W-Reg2": 5653,
      "W-Rexc3": 5654,
      "W-Rexf3": 5655,
      "W-Rec7": 5656,
      "W-Rexc4": 5657,
      "W-Ref7": 5658,
      "W-Rexc5": 5659,
      "W-Reg8": 5660,
      "W-Rexf5": 5661,
      "W-Rexf4": 5662,
      "W-Rexb5": 5663,
      "W-Rexd3": 5664,
      "W-Rexe3": 5665,
      "W-Reh3": 5666,
      "W-Rexd7": 5667,
      "W-Rexc7": 5668,
      "W-Red1+": 5669,
      "W-Ref8+": 5670,
      "W-Rexg7+": 5671,
      "W-Red2+": 5672,
      "W-Red6+": 5673,
      "W-Red8+": 5674,
      "W-Red7#": 5675,
      "W-Rexe3+": 5676,
      "W-Rexe5+": 5677,
      "W-Ke5#": 5678,
      "W-h6#": 5679,
      "B-Bh6#": 5680,
      "B-Qxe7#": 5681,
      "W-Kh4+": 5682,
      "B-Rd6#": 5683,
      "W-Nd3#": 5684,
      "B-Ref3": 5685,
      "B-Rec3": 5686,
      "B-Rec4": 5687,
      "B-Rexd4": 5688,
      "B-Rexd5": 5689,
      "B-Red3": 5690,
      "B-Reg7": 5691,
      "B-Red5": 5692,
      "B-Rexf5": 5693,
      "B-Rexd3": 5694,
      "B-Rexf7": 5695,
      "B-Rexd7": 5696,
      "B-Rexd2": 5697,
      "B-Rexc7": 5698,
      "B-Rexc2": 5699,
      "B-Rexe1": 5700,
      "B-Rea7": 5701,
      "B-Rexb6": 5702,
      "B-Rexe1+": 5703,
      "B-Reb8+": 5704,
      "B-Rexc2+": 5705,
      "B-Rexg2": 5706,
      "B-Rexg2+": 5707,
      "B-Rexa2": 5708,
      "B-Rexe3+": 5709,
      "B-Rexa6": 5710,
      "W-Rc2xc6": 5711,
      "W-Rc2xc3": 5712,
      "W-Rc2c3+": 5713,
      "B-Nfxe5": 5714,
      "B-Nfh6": 5715,
      "B-Nfd3": 5716,
      "B-Nfe3": 5717,
      "B-Nfh4": 5718,
      "B-Nfd8": 5719,
      "B-Nfxg6": 5720,
      "B-Nfxe8": 5721,
      "B-Nfxh2": 5722,
      "B-Nfe5+": 5723,
      "B-Nfe2+": 5724,
      "B-Nfxg2": 5725,
      "B-Nfxg8": 5726,
      "B-Nfxh4": 5727,
      "W-Rxe6#": 5728,
      "B-Qhg6": 5729,
      "B-Qhf3+": 5730,
      "B-Qhf1+": 5731,
      "B-Qhf4+": 5732,
      "B-Qhg4+": 5733,
      "B-Qhe1#": 5734,
      "B-Qhh1#": 5735,
      "B-Qhb1#": 5736,
      "B-Qhc3#": 5737,
      "B-Qhf3#": 5738,
      "B-Qhxd5+": 5739,
      "B-Bxg4#": 5740,
      "W-Rg3g4": 5741,
      "W-b6#": 5742,
      "B-Re2e7+": 5743,
      "B-Re2xe1+": 5744,
      "W-Re7xe8+": 5745,
      "B-Rh8h2+": 5746,
      "B-Bxh3#": 5747,
      "W-Bxb5#": 5748,
      "B-Bc8#": 5749,
      "W-Rd5#": 5750,
      "W-Rd5d7+": 5751,
      "W-Bc5#": 5752,
      "B-hxg6#": 5753,
      "B-Kb4+": 5754,
      "W-Rbc6": 5755,
      "W-Rbc4": 5756,
      "W-Rbc5": 5757,
      "W-Rbb4": 5758,
      "W-Rbb3": 5759,
      "W-Rbb6": 5760,
      "W-Rbe3": 5761,
      "W-Rbg7": 5762,
      "W-Rbd6": 5763,
      "W-Rbe5": 5764,
      "W-Rbe4": 5765,
      "W-Rbh4": 5766,
      "W-Rbb2": 5767,
      "W-Rbxc5": 5768,
      "W-Rbxg5": 5769,
      "W-Rba4": 5770,
      "W-Rbxb4": 5771,
      "W-Rba6": 5772,
      "W-Rba3": 5773,
      "W-Rbxe1": 5774,
      "W-Rbg6+": 5775,
      "W-Rbe4+": 5776,
      "W-Rbxd8+": 5777,
      "W-Rbxb6": 5778,
      "W-Rbxe7+": 5779,
      "W-Rbc6+": 5780,
      "W-Rbc1+": 5781,
      "W-Rbg1+": 5782,
      "W-Rbxb2": 5783,
      "W-Rbd7+": 5784,
      "W-Rbc5+": 5785,
      "W-Rbxa7": 5786,
      "W-Rbxa2": 5787,
      "W-Rbxa6": 5788,
      "B-gxf5#": 5789,
      "B-Rc4#": 5790,
      "W-Rxd4#": 5791,
      "B-Rd5d2": 5792,
      "W-Rf4f5": 5793,
      "W-Rf4xf8+": 5794,
      "W-Bb4#": 5795,
      "W-Rcg5": 5796,
      "W-Rcb4": 5797,
      "W-Rcxd4": 5798,
      "W-Rcxd5": 5799,
      "W-Rce7": 5800,
      "W-Rcf4": 5801,
      "W-Rcd7": 5802,
      "W-Rcf5": 5803,
      "W-Rcg3": 5804,
      "W-Rch6": 5805,
      "W-Rcb3": 5806,
      "W-Rcb6": 5807,
      "W-Rcg7": 5808,
      "W-Rce6": 5809,
      "W-Rce4": 5810,
      "W-Rcf7": 5811,
      "W-Rcb8": 5812,
      "W-Rcxb5": 5813,
      "W-Rcxd3": 5814,
      "W-Rca6": 5815,
      "W-Rcxf7": 5816,
      "W-Rca3": 5817,
      "W-Rcxd7": 5818,
      "W-Rcxd2": 5819,
      "W-Rcxf2": 5820,
      "W-Rcxc2": 5821,
      "W-Rcxf1": 5822,
      "W-Rcxc1": 5823,
      "W-Rcxh8": 5824,
      "W-Rcxd8+": 5825,
      "W-Rcd1+": 5826,
      "W-Rcb1+": 5827,
      "W-Rcb8+": 5828,
      "W-Rcxc8+": 5829,
      "W-Rcxb2": 5830,
      "W-Rcxg7+": 5831,
      "W-Rcd2+": 5832,
      "W-Rcd7+": 5833,
      "W-Rcf5+": 5834,
      "W-Rcxa7": 5835,
      "W-Rcxa5": 5836,
      "W-Rcd8+": 5837,
      "W-Rcxh4": 5838,
      "W-Rcg7#": 5839,
      "W-Rcxe5+": 5840,
      "W-Rcxc4+": 5841,
      "B-Rc6xc5": 5842,
      "W-hxg3+": 5843,
      "B-Bc7#": 5844,
      "B-Rb3#": 5845,
      "B-Nce8": 5846,
      "B-Ncd8": 5847,
      "B-Ncb8": 5848,
      "B-Ncxe6": 5849,
      "B-Nca4": 5850,
      "B-Ncxd2": 5851,
      "B-Nce2+": 5852,
      "B-Ncb3+": 5853,
      "B-Ncxa2": 5854,
      "B-Ra6xa2": 5855,
      "B-f3#": 5856,
      "W-Re5e7+": 5857,
      "B-Rcg4": 5858,
      "B-Rcf4": 5859,
      "B-Rcd3": 5860,
      "B-Rch5": 5861,
      "B-Rce3": 5862,
      "B-Rce4": 5863,
      "B-Rcxf6": 5864,
      "B-Rcxc6": 5865,
      "B-Rcf7": 5866,
      "B-Rcxc5": 5867,
      "B-Rcxb4": 5868,
      "B-Rca6": 5869,
      "B-Rcxe7": 5870,
      "B-Rcxe2": 5871,
      "B-Rcxf8": 5872,
      "B-Rca2": 5873,
      "B-Rca7": 5874,
      "B-Rcf2+": 5875,
      "B-Rce8+": 5876,
      "B-Rcxd2+": 5877,
      "B-Rcd1+": 5878,
      "B-Rcxe2+": 5879,
      "B-Rcf8+": 5880,
      "B-Rcf1+": 5881,
      "B-Rcxc7+": 5882,
      "B-Rcxb2": 5883,
      "B-Rcxb7": 5884,
      "B-Rcxa7": 5885,
      "B-Rcxa5": 5886,
      "B-Rcxa2": 5887,
      "B-Rcxa3": 5888,
      "B-Rcxd3+": 5889,
      "B-Rcxc4+": 5890,
      "B-Rcxe4+": 5891,
      "W-Bf1#": 5892,
      "W-Nxf5#": 5893,
      "W-Rb3b6+": 5894,
      "B-Qxc4#": 5895,
      "W-Ndc5": 5896,
      "W-Nde7": 5897,
      "W-Ndxe5": 5898,
      "W-Ndb7": 5899,
      "W-Ndxc3": 5900,
      "W-Ndb2": 5901,
      "W-Ndc2": 5902,
      "W-Ndf1": 5903,
      "W-Ndb1": 5904,
      "W-Ndf2": 5905,
      "W-Ndxc5": 5906,
      "W-Ndxe6": 5907,
      "W-Ndxc2": 5908,
      "W-Ndxf1": 5909,
      "W-Nde6+": 5910,
      "W-Ndxf6+": 5911,
      "W-Nde3+": 5912,
      "W-Nde7+": 5913,
      "W-Nde4+": 5914,
      "W-Ndxc7+": 5915,
      "W-Ndxb2": 5916,
      "W-Ndc4+": 5917,
      "W-Ndf4+": 5918,
      "B-Nxb4#": 5919,
      "B-Rg6#": 5920,
      "B-Rg6xg2+": 5921,
      "W-Rxc6#": 5922,
      "B-Ra4a6": 5923,
      "B-Rb4xb3": 5924,
      "B-Rbb5": 5925,
      "B-Rbc5": 5926,
      "B-Rbb4": 5927,
      "B-Rbe1": 5928,
      "B-Rbe4": 5929,
      "B-Rbxc6": 5930,
      "B-Rbg2": 5931,
      "B-Rbf7": 5932,
      "B-Rbf2": 5933,
      "B-Rbg1": 5934,
      "B-Rbxe3": 5935,
      "B-Rba6": 5936,
      "B-Rbxd2": 5937,
      "B-Rbxh7": 5938,
      "B-Rba2": 5939,
      "B-Rbxc1": 5940,
      "B-Rbxf3+": 5941,
      "B-Rbe8+": 5942,
      "B-Rbxd1+": 5943,
      "B-Rbxb6": 5944,
      "B-Rbg1+": 5945,
      "B-Rbh8": 5946,
      "B-Rbxb2": 5947,
      "B-Rbxa7": 5948,
      "B-Rbe2#": 5949,
      "B-Rbg5#": 5950,
      "B-Rf4f7": 5951,
      "B-g3#": 5952,
      "B-Re5xe3": 5953,
      "B-Re5xe1+": 5954,
      "W-Rg4#": 5955,
      "W-Rg4g2": 5956,
      "B-Nc7#": 5957,
      "B-Rb7b4": 5958,
      "W-Qe5f5+": 5959,
      "W-Bf2#": 5960,
      "B-Rxc4#": 5961,
      "W-Ncd7": 5962,
      "W-Ncb3": 5963,
      "W-Ncd3": 5964,
      "W-Nce6": 5965,
      "W-Nce8": 5966,
      "W-Nca4": 5967,
      "W-Ncxe3": 5968,
      "W-Nce6+": 5969,
      "W-Nce8+": 5970,
      "W-Ncxb1": 5971,
      "W-Ncxa6": 5972,
      "B-axb6+": 5973,
      "W-Nfg4": 5974,
      "W-Nfd7": 5975,
      "W-Nfd3": 5976,
      "W-Nfd1": 5977,
      "W-Nfxd6": 5978,
      "W-Nfxd3": 5979,
      "W-Nfxe3": 5980,
      "W-Nfh3": 5981,
      "W-Nfxe7": 5982,
      "W-Nfxg6": 5983,
      "W-Nfg6+": 5984,
      "W-Nfd4+": 5985,
      "W-Nfh2": 5986,
      "W-Qxe3#": 5987,
      "W-Rg5#": 5988,
      "W-Qd8a8": 5989,
      "W-d7#": 5990,
      "W-Nd7#": 5991,
      "B-Rg7g4": 5992,
      "W-Bxg6#": 5993,
      "B-c2#": 5994,
      "W-Rg2g1": 5995,
      "W-Rhe1#": 5996,
      "W-Bxc7#": 5997,
      "W-Qah3": 5998,
      "W-Qaxf7+": 5999,
      "W-Qag8+": 6000,
      "W-Qab1+": 6001,
      "W-Qab6+": 6002,
      "W-Qaxg2+": 6003,
      "W-Qab7+": 6004,
      "W-Qag5+": 6005,
      "W-Qaa5#": 6006,
      "W-Qaa1#": 6007,
      "W-Qac8#": 6008,
      "W-Qaa3+": 6009,
      "W-Qah8+": 6010,
      "W-Qaxb5+": 6011,
      "W-Qaxa5+": 6012,
      "B-Ndf3": 6013,
      "B-Ndc3": 6014,
      "B-Ndxf6": 6015,
      "B-Ndxc3": 6016,
      "B-Ndf7": 6017,
      "B-Ndb8": 6018,
      "B-Ndxf5": 6019,
      "B-Ndxf4": 6020,
      "B-Ndxb5": 6021,
      "B-Ndxe3": 6022,
      "B-Ndxf2": 6023,
      "B-Ndxf8": 6024,
      "B-Nde3+": 6025,
      "B-Ndf3+": 6026,
      "B-Ndxb2": 6027,
      "B-Nde3#": 6028,
      "B-Ndxe3+": 6029,
      "W-hxg6#": 6030,
      "B-d2#": 6031,
      "W-Rxf4#": 6032,
      "B-Nb8a6": 6033,
      "W-Rxd3#": 6034,
      "W-Rxe3#": 6035,
      "B-Rh7xh2+": 6036,
      "B-Rh7h1+": 6037,
      "B-Nec4": 6038,
      "B-Neg3": 6039,
      "B-Neg7": 6040,
      "B-Nexf6": 6041,
      "B-Nec7": 6042,
      "B-Nec8": 6043,
      "B-Nef7": 6044,
      "B-Nexc5": 6045,
      "B-Nexd3": 6046,
      "B-Nexf7": 6047,
      "B-Nexg6": 6048,
      "B-Ned4+": 6049,
      "B-Nexg2": 6050,
      "B-Nec5+": 6051,
      "W-Rh4h5": 6052,
      "B-Qxb5#": 6053,
      "B-Qac4": 6054,
      "B-Qae1": 6055,
      "B-Qag1": 6056,
      "B-Qae1+": 6057,
      "B-Qad5+": 6058,
      "B-Qaxd3+": 6059,
      "B-Qae7#": 6060,
      "B-Qae1#": 6061,
      "B-Qad1#": 6062,
      "W-Nec6": 6063,
      "W-Neg6": 6064,
      "W-Ned1": 6065,
      "W-Nexc6": 6066,
      "W-Nec2": 6067,
      "W-Nec1": 6068,
      "W-Nef2": 6069,
      "W-Nexf5": 6070,
      "W-Nexf4": 6071,
      "W-Nexd6": 6072,
      "W-Nexg4": 6073,
      "W-Nexd1": 6074,
      "W-Nexg6": 6075,
      "W-Nexc8": 6076,
      "W-Neg6+": 6077,
      "W-Nexf6+": 6078,
      "W-Nec3+": 6079,
      "W-Nexc7+": 6080,
      "W-Nexg7": 6081,
      "W-Nec7+": 6082,
      "W-Nef4+": 6083,
      "W-Nef5+": 6084,
      "W-Ned5+": 6085,
      "W-Nexd6+": 6086,
      "W-Nexf5+": 6087,
      "B-Rxd6#": 6088,
      "B-Rxb3#": 6089,
      "W-Rh2h8": 6090,
      "W-Bxd8#": 6091,
      "B-Nf8h7": 6092,
      "W-Rxc4#": 6093,
      "B-Re3xe1+": 6094,
      "W-Ka4+": 6095,
      "B-Rxd2#": 6096,
      "B-Rh4h1+": 6097,
      "W-Rh7h8+": 6098,
      "W-Rxf3#": 6099,
      "B-Rxb4#": 6100,
      "B-Rxd7#": 6101,
      "W-Rxg7#": 6102,
      "W-Rxb6#": 6103,
      "W-Bh5#": 6104,
      "W-Qe7e1+": 6105,
      "W-R1f6": 6106,
      "W-R1c6": 6107,
      "W-R1b4": 6108,
      "W-R1e7": 6109,
      "W-R1f4": 6110,
      "W-R1b3": 6111,
      "W-R1h5": 6112,
      "W-R1xc3": 6113,
      "W-R1f7": 6114,
      "W-R1xe6": 6115,
      "W-R1xd3": 6116,
      "W-R1xe3": 6117,
      "W-R1h3": 6118,
      "W-R1a6": 6119,
      "W-R1xe2": 6120,
      "W-R1xf7+": 6121,
      "W-R1g6+": 6122,
      "W-R1g7+": 6123,
      "W-R1h6+": 6124,
      "W-R1d4+": 6125,
      "W-R1f2+": 6126,
      "W-R1b7+": 6127,
      "W-R1f5+": 6128,
      "W-R1d5+": 6129,
      "W-R1a7#": 6130,
      "W-R1e6#": 6131,
      "W-R1f6#": 6132,
      "W-Ba5#": 6133,
      "W-Rgf6": 6134,
      "W-Rgc3": 6135,
      "W-Rgg4": 6136,
      "W-Rgb5": 6137,
      "W-Rgc4": 6138,
      "W-Rgxd4": 6139,
      "W-Rge7": 6140,
      "W-Rgf5": 6141,
      "W-Rgg3": 6142,
      "W-Rgh5": 6143,
      "W-Rgd5": 6144,
      "W-Rgd4": 6145,
      "W-Rgb7": 6146,
      "W-Rgxc6": 6147,
      "W-Rgxc3": 6148,
      "W-Rgb2": 6149,
      "W-Rgc7": 6150,
      "W-Rgc2": 6151,
      "W-Rgc8": 6152,
      "W-Rgf7": 6153,
      "W-Rgxb5": 6154,
      "W-Rgxd3": 6155,
      "W-Rgxe3": 6156,
      "W-Rgh3": 6157,
      "W-Rgxd2": 6158,
      "W-Rgxe1": 6159,
      "W-Rgxf7+": 6160,
      "W-Rge1+": 6161,
      "W-Rgh7": 6162,
      "W-Rga8": 6163,
      "W-Rgd1+": 6164,
      "W-Rgxh7+": 6165,
      "W-Rgxg2": 6166,
      "W-Rgc7+": 6167,
      "W-Rgc5+": 6168,
      "W-Rgxd6+": 6169,
      "W-Rgxg8+": 6170,
      "W-Rgxa8": 6171,
      "W-Rf7f8": 6172,
      "W-Rxe2#": 6173,
      "W-Bxe3+": 6174,
      "W-Rxa4#": 6175,
      "W-Qxa5#": 6176,
      "B-R8g5": 6177,
      "B-R8b5": 6178,
      "B-R8b4": 6179,
      "B-R8b3": 6180,
      "B-R8d4": 6181,
      "B-R8xc3": 6182,
      "B-R8b2": 6183,
      "B-R8xd6": 6184,
      "B-R8xb5": 6185,
      "B-R8a5": 6186,
      "B-R8a4": 6187,
      "B-R8a6": 6188,
      "B-R8xe7": 6189,
      "B-R8xf7": 6190,
      "B-R8a3": 6191,
      "B-R8g6+": 6192,
      "B-R8d4+": 6193,
      "B-R8e4+": 6194,
      "B-R8h2": 6195,
      "B-R8d3+": 6196,
      "B-R8h7": 6197,
      "B-R8c3+": 6198,
      "B-R8h2+": 6199,
      "B-R8d7+": 6200,
      "B-R8c4+": 6201,
      "B-R8f4+": 6202,
      "B-R8b3+": 6203,
      "B-R8xa5": 6204,
      "B-R8b2+": 6205,
      "B-R8a2#": 6206,
      "B-R8xb3+": 6207,
      "B-R8b3#": 6208,
      "B-Rxg4#": 6209,
      "W-Rhg1#": 6210,
      "W-Be7#": 6211,
      "B-Qxc7#": 6212,
      "B-Ka3+": 6213,
      "B-Qxa1#": 6214,
      "W-f7#": 6215,
      "B-Rgg4": 6216,
      "B-Rgc4": 6217,
      "B-Rgc5": 6218,
      "B-Rgf4": 6219,
      "B-Rge5": 6220,
      "B-Rge6": 6221,
      "B-Rgd5": 6222,
      "B-Rgd4": 6223,
      "B-Rgh4": 6224,
      "B-Rgb7": 6225,
      "B-Rgc2": 6226,
      "B-Rgf1": 6227,
      "B-Rgxf5": 6228,
      "B-Rgxf4": 6229,
      "B-Rga4": 6230,
      "B-Rgxf7": 6231,
      "B-Rgxf2": 6232,
      "B-Rgxc7": 6233,
      "B-Rga2": 6234,
      "B-Rgxh2": 6235,
      "B-Rgf3+": 6236,
      "B-Rgxe1+": 6237,
      "B-Rgd2+": 6238,
      "B-Rgf4+": 6239,
      "B-Rgb2+": 6240,
      "B-Rgxg1": 6241,
      "B-Rgxd3+": 6242,
      "B-Rgxh6": 6243,
      "B-Rgxg3+": 6244,
      "B-b1=R": 6245,
      "B-b1=B": 6246,
      "B-b1=N+": 6247,
      "B-b1=R+": 6248,
      "B-b1=R#": 6249,
      "B-axb3#": 6250,
      "B-c1=N": 6251,
      "B-Rxg5#": 6252,
      "B-Rxc7#": 6253,
      "B-f2#": 6254,
      "B-Bd2#": 6255,
      "B-Rf1f7": 6256,
      "W-c8=N+": 6257,
      "W-Qxc2#": 6258,
      "W-Nxa7#": 6259,
      "W-b8=B": 6260,
      "W-b8=N+": 6261,
      "W-b8=R+": 6262,
      "W-b8=B+": 6263,
      "W-g8=N+": 6264,
      "B-Nxf3#": 6265,
      "W-f8=N": 6266,
      "W-f8=R+": 6267,
      "W-f8=B+": 6268,
      "W-Ng1f3": 6269,
      "W-Rxg6#": 6270,
      "W-Rxg4#": 6271,
      "B-Nc8e7": 6272,
      "B-Rxg3#": 6273,
      "W-dxc3+": 6274,
      "W-dxc3#": 6275,
      "W-Nfd2+": 6276,
      "B-Rg3#": 6277,
      "B-f1=N": 6278,
      "B-f1=N+": 6279,
      "B-f1=R+": 6280,
      "B-Bb2#": 6281,
      "B-Qxa5#": 6282,
      "B-Rxa6#": 6283,
      "B-cxb6+": 6284,
      "B-Nb2#": 6285,
      "W-Na2#": 6286,
      "B-Nxa2#": 6287,
      "W-Qa2#": 6288,
      "W-Nxe3+": 6289,
      "W-Rdg1#": 6290,
      "B-Nxh2#": 6291,
      "B-Rxg8#": 6292,
      "B-Rxh6#": 6293,
      "B-Nhf3": 6294,
      "B-Nhf8": 6295,
      "B-Nhf7": 6296,
      "B-Nhxf5": 6297,
      "B-Nhxg4": 6298,
      "B-Nhxf2": 6299,
      "B-Nhf2+": 6300,
      "W-Rxg1#": 6301,
      "B-Qh7#": 6302,
      "W-Ne7c6+": 6303,
      "W-Kxh3+": 6304,
      "W-Qxd1#": 6305,
      "W-Nxa3+": 6306,
      "B-Qxg7#": 6307,
      "##xg2#": 6308,
      "B-Nxa6+": 6309,
      "B-Rxh7#": 6310,
      "W-Rxh3#": 6311,
      "W-Nxb3+": 6312,
      "B-Nac3": 6313,
      "B-Nab4": 6314,
      "B-Nab3": 6315,
      "B-Nab7": 6316,
      "B-Naxc6": 6317,
      "B-Naxc3": 6318,
      "B-Nac8": 6319,
      "B-Na7+": 6320,
      "B-Na8+": 6321,
      "B-Na1+": 6322,
      "B-Nac3+": 6323,
      "B-Nab3+": 6324,
      "W-Kxg6+": 6325,
      "W-Qxh4#": 6326,
      "B-Qxh5#": 6327,
      "W-Nab6": 6328,
      "W-Naxc3": 6329,
      "W-Nab2": 6330,
      "W-Nac7": 6331,
      "W-Nac1": 6332,
      "W-Na2+": 6333,
      "W-Na8+": 6334,
      "W-Naxc1": 6335,
      "W-Nac4+": 6336,
      "W-Naxb6+": 6337,
      "W-Naxc6+": 6338,
      "W-Nd8#": 6339,
      "B-Bc1#": 6340,
      "B-Qxa6#": 6341,
      "W-Nhf4": 6342,
      "W-Nhxf3": 6343,
      "W-Nhxg4": 6344,
      "W-Nh1+": 6345,
      "W-Nhf6+": 6346,
      "W-Nhxg7": 6347,
      "W-Nhxg5+": 6348,
      "B-N7xd5": 6349,
      "B-N7e5": 6350,
      "B-N7xb6": 6351,
      "W-N2e3": 6352,
      "W-N2e4": 6353,
      "W-N2xf3": 6354,
      "W-N2xc4": 6355,
      "W-N2xg3": 6356,
      "W-Be8#": 6357,
      "B-Bd1#": 6358,
      "W-dxc7#": 6359,
      "B-Qb1b3+": 6360,
      "W-R8f3": 6361,
      "W-R8c6": 6362,
      "W-R8b4": 6363,
      "W-R8e2": 6364,
      "W-R8d2": 6365,
      "W-R8d3": 6366,
      "W-R8e3": 6367,
      "W-R8e5": 6368,
      "W-R8e6": 6369,
      "W-R8e4": 6370,
      "W-R8d4": 6371,
      "W-R8c2": 6372,
      "W-R8xf5": 6373,
      "W-R8e6+": 6374,
      "W-R8xh2": 6375,
      "W-R8xd7+": 6376,
      "W-R8e4+": 6377,
      "W-R8xe7+": 6378,
      "W-R8b6+": 6379,
      "W-R7g5": 6380,
      "W-R7c4": 6381,
      "W-R7xd5": 6382,
      "W-R7e2": 6383,
      "W-R7f5": 6384,
      "W-R7g3": 6385,
      "W-R7b3": 6386,
      "W-R7e3": 6387,
      "W-R7d6": 6388,
      "W-R7e5": 6389,
      "W-R7h4": 6390,
      "W-R7xf6": 6391,
      "W-R7xc6": 6392,
      "W-R7g2": 6393,
      "W-R7c2": 6394,
      "W-R7f2": 6395,
      "W-R7xe6": 6396,
      "W-R7xb4": 6397,
      "W-R7e5+": 6398,
      "W-R7g2+": 6399,
      "W-R7h2": 6400,
      "W-R7xh5": 6401,
      "B-Nbd5+": 6402,
      "W-Bf8#": 6403,
      "W-N1e3": 6404,
      "W-N1a3": 6405,
      "W-N1xa2": 6406,
      "B-Be1#": 6407,
      "B-R1c6": 6408,
      "B-R1c5": 6409,
      "B-R1b4": 6410,
      "B-R1xd5": 6411,
      "B-R1e7": 6412,
      "B-R1g6": 6413,
      "B-R1d2": 6414,
      "B-R1g7": 6415,
      "B-R1e5": 6416,
      "B-R1e4": 6417,
      "B-R1c7": 6418,
      "B-R1c2": 6419,
      "B-R1xc5": 6420,
      "B-R1xd6": 6421,
      "B-R1xb3": 6422,
      "B-R1e3+": 6423,
      "B-R1e7+": 6424,
      "B-R1d4+": 6425,
      "B-R1e2+": 6426,
      "B-R1f2+": 6427,
      "B-R1d3+": 6428,
      "B-R1c3+": 6429,
      "B-R1b2+": 6430,
      "W-Na7#": 6431,
      "B-R2g4": 6432,
      "B-R2c5": 6433,
      "B-R2d7": 6434,
      "B-R2f5": 6435,
      "B-R2g3": 6436,
      "B-R2b3": 6437,
      "B-R2xe4": 6438,
      "B-R2e3": 6439,
      "B-R2e5": 6440,
      "B-R2e6": 6441,
      "B-R2e4": 6442,
      "B-R2b7": 6443,
      "B-R2xc6": 6444,
      "B-R2xc4": 6445,
      "B-R2f7": 6446,
      "B-R2xc5": 6447,
      "B-R2xd3": 6448,
      "B-R2xe3": 6449,
      "B-R2xd7": 6450,
      "B-R2a4+": 6451,
      "B-N8xf6": 6452,
      "B-N8xc6": 6453,
      "B-N8a6": 6454,
      "B-N8xe7": 6455,
      "B-N8xd7": 6456,
      "W-R5f3": 6457,
      "W-R5c3": 6458,
      "W-R5c4": 6459,
      "W-R5f4": 6460,
      "W-R5b3": 6461,
      "W-R5e6": 6462,
      "W-R5xc4": 6463,
      "W-R5h3": 6464,
      "W-R5xd2": 6465,
      "W-R5a2": 6466,
      "W-R5g6+": 6467,
      "W-R5h7": 6468,
      "W-Nc8#": 6469,
      "W-R6g4": 6470,
      "W-R6f4": 6471,
      "W-R6e2": 6472,
      "W-R6xe4": 6473,
      "W-R6e3": 6474,
      "W-R6e4": 6475,
      "W-R6d5": 6476,
      "W-R6d4": 6477,
      "W-R6xf4": 6478,
      "W-R6a5": 6479,
      "W-R6xf2": 6480,
      "W-R6g7+": 6481,
      "W-R6h7": 6482,
      "W-R6f5+": 6483,
      "W-R6a7+": 6484,
      "W-R6xh4": 6485,
      "W-R6b5+": 6486,
      "B-R4c6": 6487,
      "B-R4xd5": 6488,
      "B-R4d7": 6489,
      "B-R4f5": 6490,
      "B-R4b6": 6491,
      "B-R4e3": 6492,
      "B-R4e5": 6493,
      "B-R4f7": 6494,
      "B-R4xe6": 6495,
      "B-R4a6": 6496,
      "B-R4a7": 6497,
      "B-R4e5+": 6498,
      "B-R4f6+": 6499,
      "B-R4g2+": 6500,
      "B-R4xb7": 6501,
      "B-R4c5+": 6502,
      "B-R4a5+": 6503,
      "B-R4g5+": 6504,
      "W-Ne8#": 6505,
      "B-Qec5": 6506,
      "B-Qee2": 6507,
      "B-Qee6": 6508,
      "B-Qexe3": 6509,
      "B-Qeg3+": 6510,
      "B-Qeg2+": 6511,
      "B-Qee2+": 6512,
      "B-Qee4+": 6513,
      "B-Qee8+": 6514,
      "B-Qec3+": 6515,
      "B-Qed6+": 6516,
      "B-Qef5+": 6517,
      "B-Qee7#": 6518,
      "B-Qee3#": 6519,
      "B-Qee1#": 6520,
      "B-Qea5#": 6521,
      "B-Qea1#": 6522,
      "B-Qeg3#": 6523,
      "B-Qee6#": 6524,
      "B-Qeh1+": 6525,
      "B-Qeb4+": 6526,
      "B-Qeb2#": 6527,
      "B-Qeg8#": 6528,
      "B-Qec3#": 6529,
      "B-Qexc3+": 6530,
      "B-Qexf1#": 6531,
      "W-Ng7f5+": 6532,
      "W-Qec4": 6533,
      "W-Qed7": 6534,
      "W-Qee2": 6535,
      "W-Qed2": 6536,
      "W-Qeh6": 6537,
      "W-Qed6": 6538,
      "W-Qee6": 6539,
      "W-Qef8": 6540,
      "W-Qee5+": 6541,
      "W-Qeg7+": 6542,
      "W-Qee3+": 6543,
      "W-Qee2+": 6544,
      "W-Qee4+": 6545,
      "W-Qexd2+": 6546,
      "W-Qeg8+": 6547,
      "W-Qed6+": 6548,
      "W-Qeb7+": 6549,
      "W-Qec4+": 6550,
      "W-Qexd6+": 6551,
      "W-Qee7#": 6552,
      "W-Qed7#": 6553,
      "W-Qexb3+": 6554,
      "W-Qeb4+": 6555,
      "W-Qee4#": 6556,
      "W-Qeg5#": 6557,
      "W-Qexc3+": 6558,
      "W-Qeb8#": 6559,
      "W-Qexe6+": 6560,
      "W-Qfe3": 6561,
      "W-Qfd5": 6562,
      "W-Qfg1": 6563,
      "W-Qfg6+": 6564,
      "W-Qff6+": 6565,
      "W-Qfg7+": 6566,
      "W-Qff7+": 6567,
      "W-Qfe7+": 6568,
      "W-Qfd3+": 6569,
      "W-Qfd6+": 6570,
      "W-Qff4+": 6571,
      "W-Qfa5+": 6572,
      "W-Qfh2#": 6573,
      "W-Qfc8#": 6574,
      "W-Qfb4+": 6575,
      "W-Qfg8#": 6576,
      "W-Qff4#": 6577,
      "W-Qfd1#": 6578,
      "W-Qfxg7#": 6579,
      "W-Qfh3#": 6580,
      "W-Qfh7#": 6581,
      "B-N6g5": 6582,
      "B-N6c4": 6583,
      "B-N6c5": 6584,
      "B-N6e7": 6585,
      "B-N6f4": 6586,
      "B-N6xe5": 6587,
      "B-N6e4+": 6588,
      "B-R6b4": 6589,
      "B-R6e7": 6590,
      "B-R6e5": 6591,
      "B-R6e4": 6592,
      "B-R6d5": 6593,
      "B-R6b2": 6594,
      "B-R6c3+": 6595,
      "B-R6xa7": 6596,
      "B-hxg2#": 6597,
      "B-Nxb7+": 6598,
      "W-Qcc6": 6599,
      "W-Qcd7": 6600,
      "W-Qce6": 6601,
      "W-Qcg7+": 6602,
      "W-Qcxd8+": 6603,
      "W-Qce8+": 6604,
      "W-Qcc6+": 6605,
      "W-Qcxc2+": 6606,
      "W-Qcd7+": 6607,
      "W-Qca2#": 6608,
      "W-Qcd7#": 6609,
      "W-Qca5#": 6610,
      "W-Qcf7#": 6611,
      "W-Qcf4#": 6612,
      "W-Qcc1#": 6613,
      "W-Qca4#": 6614,
      "W-Qca8#": 6615,
      "B-N4h6": 6616,
      "B-N4h5": 6617,
      "B-N4d5": 6618,
      "B-N4xh3": 6619,
      "B-N4g3+": 6620,
      "B-N5f4": 6621,
      "B-N5xc4": 6622,
      "B-N5f4+": 6623,
      "W-Qdf3": 6624,
      "W-Qdc5": 6625,
      "W-Qdd3": 6626,
      "W-Qdf6+": 6627,
      "W-Qdf3+": 6628,
      "W-Qde8+": 6629,
      "W-Qdd3+": 6630,
      "W-Qdf8+": 6631,
      "W-Qdb6+": 6632,
      "W-Qdxf8+": 6633,
      "W-Qdd2+": 6634,
      "W-Qdd6+": 6635,
      "W-Qdc5+": 6636,
      "W-Qda8#": 6637,
      "W-Qdb7#": 6638,
      "W-R3g5": 6639,
      "W-R3b5": 6640,
      "W-R3c4": 6641,
      "W-R3d5": 6642,
      "W-R3b7": 6643,
      "W-R3xb4": 6644,
      "W-R3xf2": 6645,
      "W-R3xc2": 6646,
      "W-R3g6+": 6647,
      "W-R3h6+": 6648,
      "W-N5c6": 6649,
      "W-N5xd4": 6650,
      "W-N5g3": 6651,
      "W-N5d3": 6652,
      "W-N5d4": 6653,
      "W-N5h4": 6654,
      "W-N5xc3": 6655,
      "W-N5h3": 6656,
      "W-N5d4+": 6657,
      "W-N5c6+": 6658,
      "W-N3g5": 6659,
      "W-N3g4": 6660,
      "W-N3e2": 6661,
      "W-N3xe4": 6662,
      "W-N3d5": 6663,
      "W-N3b2": 6664,
      "W-N3a4": 6665,
      "W-N3xd2": 6666,
      "W-N3xh2": 6667,
      "W-N3h4+": 6668,
      "B-Ng2#": 6669,
      "W-R4c3": 6670,
      "W-R4e7": 6671,
      "W-R4d2": 6672,
      "W-R4e3": 6673,
      "W-R4d6": 6674,
      "W-R4xc6": 6675,
      "W-R4b2": 6676,
      "W-R4a5": 6677,
      "W-R4xe3": 6678,
      "W-R4h3": 6679,
      "B-R3c6": 6680,
      "B-R3g5": 6681,
      "B-R3c4": 6682,
      "B-R3c5": 6683,
      "B-R3xd4": 6684,
      "B-R3e7": 6685,
      "B-R3d7": 6686,
      "B-R3f5": 6687,
      "B-R3e5": 6688,
      "B-R3e6": 6689,
      "B-R3f7": 6690,
      "B-R3a6": 6691,
      "B-R3xf7": 6692,
      "B-R3g4+": 6693,
      "B-R3xa4": 6694,
      "B-Qdf8": 6695,
      "B-Qdxf1": 6696,
      "B-Qdd4+": 6697,
      "B-Qdg2+": 6698,
      "B-Qdf2+": 6699,
      "B-Qde1+": 6700,
      "B-Qdd3+": 6701,
      "B-Qdc6+": 6702,
      "B-Qdc3+": 6703,
      "B-Qdc1+": 6704,
      "B-Qdd6+": 6705,
      "B-Qdd5+": 6706,
      "B-Qde3#": 6707,
      "B-Qdh1#": 6708,
      "B-Qdd6#": 6709,
      "B-Qde6#": 6710,
      "B-Qdb1#": 6711,
      "B-Qda1+": 6712,
      "B-Qdd3#": 6713,
      "B-Qdc2#": 6714,
      "B-Qdxh3#": 6715,
      "B-Nfg4+": 6716,
      "B-Ncxd4+": 6717,
      "B-Qff3": 6718,
      "B-Qff6": 6719,
      "B-Qfc4": 6720,
      "B-Qff5": 6721,
      "B-Qfd2": 6722,
      "B-Qff2": 6723,
      "B-Qfc1+": 6724,
      "B-Qfd6+": 6725,
      "B-Qff4+": 6726,
      "B-Qfa2#": 6727,
      "B-Qfe2#": 6728,
      "B-Qfh1#": 6729,
      "B-Qfb5+": 6730,
      "B-Qfxf4+": 6731,
      "B-Qfb6#": 6732,
      "B-Qfxg2#": 6733,
      "W-Ncb5+": 6734,
      "B-Ncxe4+": 6735,
      "W-Bh7#": 6736,
      "B-R5h6": 6737,
      "B-R5b6": 6738,
      "B-R5b7": 6739,
      "B-R5c7": 6740,
      "B-R5f7": 6741,
      "B-R5xd6": 6742,
      "B-R5a6": 6743,
      "B-R5f4+": 6744,
      "B-Qcd4+": 6745,
      "B-Qcd1+": 6746,
      "B-Qcc6+": 6747,
      "B-Qcc4+": 6748,
      "B-Qcc5+": 6749,
      "B-Qce3#": 6750,
      "B-Qcb5+": 6751,
      "B-Qcg1#": 6752,
      "B-Qce4#": 6753,
      "B-Qcc1#": 6754,
      "B-Nf1#": 6755,
      "B-Nexd5+": 6756,
      "W-Qbf2": 6757,
      "W-Qbxe8": 6758,
      "W-Qba7": 6759,
      "W-Qbxf3+": 6760,
      "W-Qbc6+": 6761,
      "W-Qbh2+": 6762,
      "W-Qbc7+": 6763,
      "W-Qbe2#": 6764,
      "W-Qbd7#": 6765,
      "W-Qbd6#": 6766,
      "W-Qbe5#": 6767,
      "W-Qbb2#": 6768,
      "W-Qgg4": 6769,
      "W-Qge4": 6770,
      "W-Qge6+": 6771,
      "W-Qgc4+": 6772,
      "W-Qgf5+": 6773,
      "W-Qgd8+": 6774,
      "W-Qgg5+": 6775,
      "W-Qgg4#": 6776,
      "W-Qgg8#": 6777,
      "W-Qgxg3+": 6778,
      "W-Qgf6#": 6779,
      "W-Qgxd1#": 6780,
      "W-Qgxe1#": 6781,
      "W-Qga8+": 6782,
      "W-Qgd5#": 6783,
      "B-Qgg6+": 6784,
      "B-Qgf3+": 6785,
      "B-Qgg2+": 6786,
      "B-Qgf2+": 6787,
      "B-Qge1+": 6788,
      "B-Qgb1+": 6789,
      "B-Qgf1+": 6790,
      "B-Qgc2+": 6791,
      "B-Qgg4#": 6792,
      "B-Qgg6#": 6793,
      "B-Qgg3#": 6794,
      "B-Qgg1#": 6795,
      "B-Qgxg4+": 6796,
      "B-Qgxg4#": 6797,
      "B-Qgxg3#": 6798,
      "B-Ned5+": 6799,
      "B-Qbe6": 6800,
      "B-Qbb2": 6801,
      "B-Qbe5+": 6802,
      "B-Qbe4+": 6803,
      "B-Qbc1+": 6804,
      "B-Qbb7+": 6805,
      "B-Qbf5+": 6806,
      "B-Qbb3+": 6807,
      "B-Qbxd3+": 6808,
      "B-Qbxb3+": 6809,
      "B-Qbe5#": 6810,
      "B-Qbe4#": 6811,
      "B-Qbb1#": 6812,
      "B-Qbb8#": 6813,
      "B-Qba4#": 6814,
      "B-Qbc6#": 6815,
      "W-exf8=Q": 6816,
      "W-exf8=N+": 6817,
      "W-exf8=B+": 6818,
      "B-exf2#": 6819,
      "W-N4g5": 6820,
      "W-N4f5": 6821,
      "W-N4c5+": 6822,
      "W-exf7#": 6823,
      "B-R7c4": 6824,
      "B-R7d2": 6825,
      "B-R7e5": 6826,
      "B-R7d5": 6827,
      "B-R7d4": 6828,
      "B-R7c2": 6829,
      "B-R7g6+": 6830,
      "B-R7f6+": 6831,
      "B-R7b2+": 6832,
      "B-R7a5+": 6833,
      "W-Ndxb5+": 6834,
      "W-R2c6": 6835,
      "W-R2c5": 6836,
      "W-R2e3": 6837,
      "W-R2d6": 6838,
      "W-R2e4": 6839,
      "W-R2d4": 6840,
      "W-R2xc5": 6841,
      "W-R2xd6": 6842,
      "W-R2xd3": 6843,
      "W-R2a3": 6844,
      "W-R2g7+": 6845,
      "W-R2h7+": 6846,
      "W-R2g6#": 6847,
      "W-R2e6#": 6848,
      "B-gxh2#": 6849,
      "W-gxf7#": 6850,
      "W-N7c6": 6851,
      "W-N7g5": 6852,
      "W-N7b5": 6853,
      "W-N7h6": 6854,
      "W-N7e5": 6855,
      "W-N7xf5": 6856,
      "W-N7f6+": 6857,
      "W-N7xe5+": 6858,
      "W-dxe8=R#": 6859,
      "B-Rfxf2#": 6860,
      "B-Ndc6#": 6861,
      "B-N2c3": 6862,
      "B-N2b4": 6863,
      "B-N2f4": 6864,
      "B-N2xe4": 6865,
      "B-N2d3": 6866,
      "B-N2e4": 6867,
      "B-N2g3+": 6868,
      "W-Nec4#": 6869,
      "W-Nexg5+": 6870,
      "W-gxf8=N+": 6871,
      "W-N6g5": 6872,
      "W-N6b5": 6873,
      "W-N6c4": 6874,
      "W-N6xb4": 6875,
      "W-N6f5+": 6876,
      "B-N3f4": 6877,
      "B-N3e5": 6878,
      "B-N3e4": 6879,
      "B-N3f4+": 6880,
      "B-N3b5+": 6881,
      "B-Ng1#": 6882,
      "B-Q1d4+": 6883,
      "B-Q1e2+": 6884,
      "B-Q1h3+": 6885,
      "B-Q1f4+": 6886,
      "B-Q1a2#": 6887,
      "B-Q1e1#": 6888,
      "B-Q1b3#": 6889,
      "B-cxd1=R#": 6890,
      "W-cxb8=N": 6891,
      "W-Rbxb7+": 6892,
      "W-Q8xe5": 6893,
      "W-Q8d3": 6894,
      "W-Q8f7": 6895,
      "W-Q8f7+": 6896,
      "B-axb1=Q+": 6897,
      "B-h1=R#": 6898,
      "W-Rexe6+": 6899,
      "B-e1=R+": 6900,
      "B-d1=R#": 6901,
      "B-a1=R#": 6902,
      "W-a8=R#": 6903,
      "W-Rdxe4+": 6904,
      "W-Rdxe4#": 6905,
      "W-Rexe2#": 6906,
      "W-Nef5#": 6907,
      "B-R8d3#": 6908,
      "W-R7a6+": 6909,
      "W-Q5d5": 6910,
      "W-Q5d4+": 6911,
      "W-Q5a7#": 6912,
      "B-Q6d4+": 6913,
      "B-Q6d5+": 6914,
      "B-Q6d6#": 6915,
      "B-Q4e4+": 6916,
      "B-Q4b6+": 6917,
      "B-Q4a4+": 6918,
      "W-hxg8=Q+": 6919,
      "B-cxb1=Q": 6920,
      "B-gxh1=Q": 6921,
      "B-hxg1=Q": 6922,
      "W-Qhe8#": 6923,
      "W-Rexe4+": 6924,
      "B-R8f3#": 6925,
      "B-Rgf2#": 6926,
      "W-Q1g2+": 6927,
      "W-Q1xe2#": 6928,
      "B-a1=B": 6929,
      "B-a1=N+": 6930,
      "B-fxg1=Q": 6931,
      "B-fxg1=R+": 6932,
      "B-Rcf2#": 6933,
      "W-Qae8#": 6934,
      "W-e8=N+": 6935,
      "B-exf1=Q": 6936,
      "W-Qhxh6#": 6937,
      "B-Rgxg1#": 6938,
      "W-b8=B#": 6939
    }
  }
}